entrusted
[unused323]
absent
philipp
##ᄏ
biscuits
##fting
hillary
replica
myriad
##’
##vio
poking
##rnik
outfits
yd
avatar
##ingdon
chloe
cardboard
alistair
[unused117]
brent
licked
nominate
aerodynamic
##ད
##dus
riaa
ladder
michigan
frightened
bursting
smash
白
[unused257]
wealthy
iaaf
televised
1809
infantry
internship
coyote
##陳
1844
polled
##nagar
mermaid
fated
tucker
[unused102]
##rya
honduras
taluk
enigma
fortunate
tremor
damascus
plane
ष
proto
##quette
robbers
[unused838]
ᄊ
##名
azerbaijani
172
writing
transfer
magnus
opposing
moses
##ff
hears
mature
statistics
fearful
1695
lowered
##!
stretch
calculations
[unused597]
##inating
##lp
lord
dressing
quarters
##folding
##ience
##placed
##ering
marriage
rug
nodding
les
pendulum
amongst
fashionable
cesar
##oud
##ே
bless
tasmanian
fiona
marina
psycho
delighted
##otide
polymers
creeks
phil
pioneers
##त
suburban
bleed
##bow
dominance
ར
intervening
bernie
movements
kong
revived
hamlet
icelandic
gambling
bait
##su
##emann
elder
techno
##pen
comforting
joaquin
corresponding
min
##mple
hiatus
serbs
impacts
short
namibia
mother
challenged
bilingual
payroll
appears
52nd
kanye
populations
##yed
63
seminar
refugees
och
issuing
heavy
by
##生
##45
actual
oversee
christensen
richly
possible
shang
♯
violate
##phus
dunlop
suffer
##道
gesturing
snuggled
birch
lifeboat
cumberland
est
skills
ய
318
linen
inexpensive
puppets
blessed
[unused180]
শ
triassic
pockets
defiance
##hend
tailor
[unused516]
baja
reins
ე
psalm
graduate
size
##cope
above
1735
##llis
supplied
nipples
nervous
pmid
##ী
##zak
clubhouse
neill
hyun
praised
[unused121]
##glio
mobilization
hung
ש
lenny
fond
filed
giovanni
morrow
festivities
[unused226]
taken
instructions
ᆨ
##ا
##oids
coloring
hartman
afterlife
##led
##agi
保
excellence
maddy
strike
should
padua
sessions
poured
freeway
##stown
geometric
instinctively
triggered
mutiny
##pathic
cartwright
##urbed
##wright
cape
personalities
backup
tail
hideous
reference
beneath
wheels
coli
glide
barry
##free
narrowly
moshe
##ise
mood
del
cottage
1974
secular
leigh
endelle
happiness
contractors
chemical
almost
torment
##lot
platoon
enrique
sleepy
darlington
trade
crabs
##morphic
quota
selection
triangular
carriages
coup
japanese
english
ravens
angled
##tana
##ente
newcastle
‑
narrator
roof
faerie
banning
##nay
##ignment
boot
stated
operator
presenting
varied
hostilities
theaters
docked
##dates
glowing
coordination
unit
flew
montana
main
##ari
##wine
##ィ
panels
sucked
compare
##vation
greasy
confederate
somebody
euroleague
1796
servants
せ
endure
selected
groan
diversified
##minster
cruisers
bulgaria
teller
facilitates
signing
cory
libre
lodges
seventy
sharing
bordeaux
coffee
calais
executions
taiwan
mining
[unused258]
tracy
charming
mozart
rosario
に
dal
witnessed
ornamental
##jou
sensing
jana
[unused75]
255
clan
engagements
maximilian
##riam
##aging
1738
valkyrie
##tius
tore
ब
courtship
trainer
alsace
stricken
jammu
intimidated
spells
municipality
lectured
##erian
##sb
searched
drum
[unused163]
##ifying
advocate
stench
[unused673]
##tech
##chfield
flows
subdivided
burying
##lium
##deh
pep
ten
sunderland
renowned
bled
deceased
[unused639]
##ᅩ
detail
potassium
larsen
lancashire
hazards
varieties
gravity
vigorously
##ad
44th
##lmer
漢
[unused602]
amusing
believers
##pia
##vance
january
marines
startled
mandal
letter
##icia
pigment
##cea
simi
outfielder
speaking
ushered
gestures
##cchi
blanca
о
overshadowed
tons
storage
ts
buys
inuit
##32
1648
##co
1708
flowed
smoothed
rider
##tooth
##mpton
eras
detector
gordon
reflex
decker
tian
premiership
##opers
represent
bottled
香
tires
holloway
encouraging
μ
yuri
middlesex
##kt
auto
epidemic
##lke
こ
pigs
##sma
markus
february
listed
implying
protest
##ट
temples
medley
busted
nave
practice
musica
բ
announced
##itude
explained
motorsport
robertson
correspondent
##yana
yawned
##time
[unused428]
export
jimmie
##lift
enemy
recoil
burnham
mitch
loose
[unused368]
1788
5th
[unused29]
jars
##opus
##ian
suggesting
richter
permanent
##ng
results
##tation
##hog
##pods
##ᶜ
unemployment
strangers
logan
##ى
##zong
eaten
courtroom
1939
havilland
melting
boyfriend
cleaner
gibbs
##ged
##tyn
butte
1719
##ucher
priority
##م
framing
passageway
##igny
email
treaty
sidekick
corrosion
ᅯ
saratoga
missing
[unused848]
fundraising
endorsement
##anov
[unused547]
fruit
intensely
wreath
bragg
prefect
earlier
##ord
sway
##get
##г
waterways
##neil
##ested
embarrassed
bernhard
frightening
spherical
camille
logs
##rations
wales
bodo
astronomers
floppy
galaxy
ceded
沢
cheek
macintosh
mathematician
##oche
parody
protections
##sit
waves
zones
48th
wind
players
##anna
workout
kill
empire
imagining
##foot
##neuve
researchers
mixing
春
##′
tightened
prize
##rina
proportional
##rius
happen
encompass
[unused742]
##centric
加
ernst
hounds
##ぬ
functioning
mane
stint
combines
##zuka
[unused947]
##ently
reflective
bassett
##jia
##き
90s
raids
bump
preferred
##hiko
denim
argentina
starbucks
dans
copenhagen
thanking
cancellation
scraped
symphonies
sunshine
brake
plainly
eliminated
rocks
justification
vocabulary
lean
power
wai
1920
pinto
electrified
club
electrical
southwest
##gnan
pv
hundreds
pharmaceuticals
ox
hired
chelsea
capture
spit
groom
arises
##ッ
scanner
lazarus
129
streetcar
##yl
allah
owes
placing
##ogan
languages
composed
task
##pu
moffat
alain
twists
פ
graveyard
trust
##pta
unreliable
finances
##iology
diverted
##tive
##zza
2500
condemned
##hood
dortmund
dex
##aya
peaceful
cambridge
cleared
criticized
villiers
？
embryo
##נ
havana
insanity
darius
shirt
thirties
clermont
spare
interim
smackdown
coherent
liechtenstein
jiang
lang
resign
conceal
junior
##л
duffy
peeled
insufficient
amour
[unused801]
ramps
☉
##om
##llah
contradictory
shapes
illustrations
##lub
##ア
benji
wild
##ɲ
##忄
owns
luke
learns
discontinued
clergyman
starboard
content
1980
##zumi
[unused50]
scattering
nerves
12th
barges
##ier
organised
[unused900]
comedians
finals
deepest
fling
cartoon
##gang
inclined
conservative
independence
nsa
acknowledging
fernandez
als
incorrect
[unused876]
teaches
hawker
dormant
##tain
theresa
##uder
245
placement
martial
settled
њ
1781
if
volley
emphasized
kerry
ballistic
magna
patricia
montpellier
##neck
hardship
flare
alejandro
conrad
leave
burr
moonlight
superiors
mathew
##ho
morgan
breeds
falling
shrink
village
minerals
landon
##sell
##ific
z
gonzaga
##gar
champaign
maclean
##dina
##hur
1795
approached
政
##sco
telephone
purge
kurdish
tan
reprise
1709
58
[unused853]
е
couch
steamship
##ias
##urian
##hurst
kellogg
bench
utter
insertion
expelled
irritated
president
##kot
off
چ
unknown
splitting
₁
exercising
camera
bender
suspected
##nst
presently
swinging
[unused682]
witty
dimension
dublin
##onia
##θ
##itas
mondays
inspectors
##iciencies
lots
adaptation
249
synthetic
appetite
##dic
[unused265]
raced
swim
##44
[unused507]
ions
bargain
soft
portraits
##19
daytona
obedience
ف
susquehanna
occupying
beasts
##flight
landlord
##ed
trademark
1950
##qvist
ribs
demise
theorem
##americana
compounds
aftermath
sacrifice
mt
durga
strewn
kilometers
lobbying
##成
rink
mist
baden
prem
[unused546]
exceed
men
bargaining
chair
app
vines
specifications
doctrines
train
thames
fritz
##iii
commune
vassal
##stor
⁸
1883
astronaut
##rt
##gie
abundance
##west
χ
precise
duty
分
##jiang
morales
militia
bids
seen
ole
useless
victorian
denomination
1869
logic
attraction
asahi
stuff
think
dense
johnny
governmental
##ung
1970
mathematics
aristocratic
##20
handcuffs
##ine
austria
##rford
km
##slin
sofa
configurations
shower
received
lauren
firefighters
screams
313
##ability
##rs
canceled
hooked
frail
raja
miracles
##otic
eyed
examine
##ote
thereof
clinging
matches
brody
informally
manpower
majestic
adaptive
ٹ
tone
tonic
generosity
gains
dentist
koppen
boon
[unused841]
##rained
watch
amman
filter
morrison
##pire
pursuits
hurdle
##।
saint
csa
connie
spotting
clyde
[unused269]
opportunities
brisk
dorm
steiner
##kong
annette
eh
##oed
gills
twinkle
contributors
georges
fresco
##φ
setting
nearest
fringe
usage
##over
##tea
unsuitable
##nais
notwithstanding
latch
##gli
131
##ト
blame
basil
##ab
considered
continuity
[unused103]
dream
##fm
bat
stairwell
ha
church
##cheon
zealand
##omic
##ston
squire
erie
義
30th
galician
stereo
crises
rounded
supernatural
basically
##gos
sending
catherine
accelerated
respect
disneyland
cuff
##rnier
moreover
deployed
gloucester
reservoirs
hopping
design
reporting
loops
adolf
bliss
isbn
economy
fixture
sunk
##iel
jain
##urn
##क
##も
##cky
prevailing
##ils
[unused912]
##riz
violet
leveled
##vus
freshmen
strauss
customized
russia
petty
shortlisted
wang
arcs
introduces
##pot
trends
chichester
335
པ
rican
norfolk
robotics
penelope
##oms
show
firm
barclay
kurt
disgusting
forced
##古
tottenham
##rini
bertram
abortion
ₘ
gould
##ocks
snake
stable
estimation
ruin
donetsk
moors
regain
throne
series
educator
tyson
coke
##ion
eclipse
decimal
pi
bentley
disabilities
hyundai
estate
woodlands
division
ʑ
phantom
##wise
clarified
characterized
##dia
dungeons
raised
sakura
##cing
partially
vicky
##sas
302
н
pioneering
##brick
##ich
fremont
##hini
alexia
obviously
anterior
exhibition
ibm
active
sun
reissued
##ruff
durban
##bir
cage
urdu
captivity
art
mess
bromwich
1749
protect
hiss
neighbors
##lam
petitioned
shed
[unused252]
##ᆯ
26
##海
preoccupied
seems
##reen
1902
historic
##ricting
cute
bros
##р
red
souza
random
[unused347]
defect
glistening
native
completes
pilgrimage
ᅭ
shuttle
prompted
surely
associated
consult
explaining
maria
##ধ
missed
baseman
presbyterian
configured
rolling
cochran
discovers
mentor
erase
jackie
ہ
##all
transmit
errors
debuting
##itated
enormous
headache
eritrea
pere
fm
##taff
olivier
texture
piers
##ona
##།
##⁸
geology
nonprofit
lake
lee
cancel
cannes
[unused86]
[unused261]
##gold
lured
beige
medina
##name
combination
accompany
##au
[UNK]
aquatics
concessions
pine
regent
―
prelate
radha
ᄏ
天
commerce
weaving
290
escorts
externally
edible
lastly
##tory
throttle
adoptive
courier
commit
hunger
mysterious
##ags
291
ganga
博
##ec
[unused596]
darkness
enrichment
girls
lucrative
islander
##ining
fledgling
fearing
admitting
960
stables
equestrian
bjp
radius
structural
approximation
tna
survival
halt
##lberg
##izations
dil
##ка
##ɪ
discussed
roots
sheet
nursing
rubble
##е
gates
##iously
##truct
howled
solicitor
##ception
advisor
wolverhampton
laying
earthquake
wildcats
hindus
supervise
##42
troubled
##zzy
hosted
begins
##tched
based
assisted
grasping
mecklenburg
##ino
##⽥
[unused217]
[unused336]
tucson
##ency
roc
crater
douglass
##ᅯ
vida
controllers
joyah
deer
##fles
##onda
ecole
premature
char
##ª
householder
spiritual
mp
##garh
regardless
muslims
##ailed
complexion
rage
2017
mare
brandy
buckled
forerunner
franklin
apical
##37
inca
##hong
##ush
miner
##tag
rest
malay
mendez
[unused965]
immersion
monroe
##glia
fled
dartmouth
khz
karate
incompatible
##ifies
aggressive
elaborated
properly
ri
consumption
postal
income
cheers
video
bryson
trier
dose
installing
archives
illustrating
obsession
secretive
peptide
##cia
prism
1873
##blood
fitz
advance
lexington
deportation
kilda
chamber
aging
scrapped
leopard
ravaged
urgency
negro
armistice
glands
deposition
[unused858]
sister
feeds
groin
mandates
bennett
touched
utility
mckenna
difficulty
##西
サ
119
##body
louise
##folk
海
##mering
chosen
bowie
##pping
confuse
##head
edited
bradford
scrub
packard
divide
secondly
backbone
generator
mind
silenced
thing
contemplated
##tsk
##→
audrey
mckay
panther
widows
launches
dinner
ign
／
binding
adrenaline
branches
oswald
##space
great
##ostal
wakefield
homogeneous
##90
depicting
humanities
spotted
1654
<
saber
reject
asshole
nevertheless
₉
##nist
shore
leah
detection
newest
strong
conspiracy
##‿
hypnotic
senate
kahn
stamford
pleasure
[unused367]
accepted
cop
bestseller
welfare
malibu
unnatural
guidelines
[unused357]
dipped
cyber
crowned
swallowing
universal
consequences
##nath
jacket
baritone
1699
scenic
grabbed
##rization
⁶
italiana
spheres
marsh
skate
blu
apologized
##ugh
quoting
railways
smelling
accessory
fauna
abundant
##urance
##itation
range
chile
hagen
trois
##bil
ᅥ
comprehend
indefinitely
outs
herbert
nuremberg
develop
##bha
69
idea
##hui
nothin
reindeer
backseat
##foil
joshi
might
control
antarctic
torn
##rring
##zic
##fia
[unused156]
en
guest
creep
raising
155
singles
occupy
muddy
producing
407
enhancing
alf
moroccan
1732
wood
defendants
bio
zipper
extensive
brigades
planck
defected
portuguese
boarded
##ico
thumb
parental
crews
troopers
first
deacon
crushed
victim
##ᆼ
soils
flung
healy
kingdom
cadence
subsidiary
torino
hesitant
pulse
##cellular
seasonal
jurisprudence
ambitions
backdrop
1877
manufactures
wetland
portage
ר
narrowed
gifford
preacher
ineligible
regularly
filing
cafe
copa
twitching
traditions
together
##quest
intercollegiate
autism
alba
destination
##ح
stray
helsinki
##weed
mclaren
radically
ɬ
greenberg
baffled
boards
source
elliptic
##block
preparations
##nus
swirled
fourteenth
wexford
bursts
##iam
344
tubes
[unused595]
fungi
monetary
##מ
servant
incapable
francisco
filmmaker
constituted
audio
murderers
##illy
##ities
night
hairy
il
seminars
reader
shelton
tangent
##fa
≡
##powering
1680
grip
##bain
negative
guardians
##abad
shitty
[unused232]
walt
·
australians
jon
marble
##fication
##ulous
##上
developmental
cas
±
johnson
##相
privileged
abroad
##thest
##logic
##eras
[unused188]
coupled
documents
uncle
defended
tutor
exists
pontifical
organisations
jammed
evicted
buck
tenth
angels
[unused844]
##『
parana
##suit
##uded
##koff
##ɾ
slowly
##す
vaughn
1963
gripped
##ey
cia
abilities
romney
gillian
trading
annabelle
stanisław
##buck
##rence
##rp
occupied
177
rodeo
##lim
ford
visiting
refers
interact
atm
1700
rumbled
##rn
michaels
top
hopefully
madrid
©
─
##ku
##発
corinne
gdp
implementations
##ef
quay
emily
array
midnight
republicans
tsunami
brussels
unbeaten
drafted
shillings
gamer
dashed
##aneous
##nes
columnist
laurel
shia
melissa
sirius
mainline
marxist
bodily
44
valves
mentally
##ear
politicians
h₂o
jim
cousin
voice
paso
lucy
え
##oza
##rigues
carry
生
investigators
buildings
abigail
evacuated
[unused202]
maximal
c
dolphin
unmanned
##bson
revoked
purchase
pointed
##aina
coached
russ
despite
##haling
loretta
punished
bullshit
frames
##ras
clive
screwed
scholarship
subdivision
encounter
leto
70th
cbe
[unused437]
hamburger
630
collects
vocals
##reus
consolidated
↓
cupboard
manifestation
banjo
specially
##crats
jesuit
shivers
sutton
dickens
minute
retreat
prostate
sous
bonnet
ᅩ
beard
##つ
##mour
optional
[unused768]
intellect
tarzan
kick
connacht
gravel
##gee
havoc
б
tariff
frederic
tri
tensor
seth
##iva
block
auditorium
##tail
wires
calves
##tri
sudbury
leonid
法
loosely
utc
ii
entourage
tehsil
hague
quoted
ignacio
tokugawa
gettysburg
psychology
##osa
##tical
[unused717]
moths
##mc
mona
felix
montagu
mina
dissolve
saga
maid
scares
grenada
v8
unconstitutional
vehicle
gottingen
letters
instantly
willie
##yre
predecessor
arrondissement
anarchist
entrepreneurship
weak
##orin
derivation
##‡
collaborated
farther
ア
tropical
bonus
admitted
johnnie
1837
訁
variants
##sation
林
rib
##ɴ
reserves
iii
abstracts
retain
##achal
##nets
smirked
##hang
reggie
##zai
preventing
grease
copeland
legend
jazz
##⁷
##llar
tease
rebirth
digital
posed
humboldt
gloom
##耳
##zman
eve
rodrigo
revisited
[unused860]
applicant
narrower
veracruz
mountain
felicia
manufacture
hasn
suns
irritating
1983
rhythm
##edging
##rim
heartbreak
vegetable
owls
blankly
solo
brute
exploration
sunglasses
##sily
cancelled
vowels
gained
minas
payload
dick
summons
germans
conflicting
ravine
membrane
##y
longitudinal
storm
intrusion
citizenship
##off
non
emission
facilitate
gorilla
shady
lakers
##lad
upward
##go
dressed
anderson
stop
devoted
nuclear
notre
##uration
willingness
##ern
glass
[unused371]
unlocked
gr
cmll
pictorial
##yra
organising
##rra
graphic
##ven
personal
sickness
friend
criminal
##．
##ivism
persist
internationals
978
hayden
demonstrating
slaughtered
hostility
maneuvers
[unused708]
[unused57]
##ᄇ
siberia
ろ
halifax
early
choral
patterns
charged
peters
wheelchair
##ケ
craven
##bella
nail
[unused488]
##linger
mosaic
fort
[unused31]
##fighter
reaction
18
portfolio
ranging
varying
mixer
stephen
thrilled
originating
restarted
littered
evacuation
shrinking
140
##his
ballads
city
drown
seconds
patent
subject
botanist
anthologies
##hawk
walls
facilitating
ს
1931
guidance
detachment
★
anonymous
manfred
sarajevo
exhibited
publicly
confirm
##stones
practiced
##ited
fergus
albion
mariana
punishment
mansions
##olio
materials
##ws
billy
kicker
differing
concentration
viceroy
oblivious
##rick
shooting
squeeze
vaulted
gorman
metabolic
orr
services
##শ
##ᅲ
spontaneous
potatoes
sims
##cala
attack
planner
zone
##ele
flickered
##彳
rugged
williamson
##oux
impressed
result
hardwood
sixty
warrant
[unused624]
differentiated
proprietor
##-
compensation
inland
prohibiting
schedules
cdp
[unused320]
paramilitary
chewing
italians
##nting
##gram
sasha
ₚ
##llas
##tile
fragment
##ය
assam
atoms
mexico
pioneer
144
mob
bombings
umar
converts
bristol
conventional
bologna
ぬ
ing
toby
skirmish
sourced
scraping
know
##illo
axes
harmony
alma
deemed
parc
tomorrow
##hale
reyes
[unused478]
##น
natalie
travelers
erasmus
synthesizer
myra
wrapped
indications
[unused489]
persistence
ᵈ
##em
sulfate
き
##示
struggling
diner
croydon
##psy
deep
hungarian
rituals
winger
macau
jurist
garrison
##ノ
arising
1666
at
##olar
quinn
winners
neon
velocity
##200
mart
327
medicare
lansing
##coat
streaked
csi
giorgio
+
undertaker
##ft
##fan
inter
##見
##drich
tying
jerusalem
##zard
christ
near
municipalities
denying
##dened
finishes
cross
habit
socrates
ymca
##cey
convertible
ζ
crowley
brunette
জ
heller
bray
without
##mism
oilers
##rated
broadcaster
1807
ignored
had
vegetables
countryside
##ometer
victorious
##⁄
hotels
reigning
arnold
##umber
##nte
##hall
tallest
blast
##kon
ambush
alfredo
proportion
joining
##ens
ct
encourages
merchandise
##bat
while
uncles
arresting
[unused810]
afternoons
ecumenical
teaching
ji
##holz
philanthropist
lin
[unused481]
hawkins
armando
monstrous
##es
georgia
kinds
##eil
warrior
##lie
##↔
shape
##jevic
photographs
##sed
reforms
fifties
[unused375]
postponed
savanna
nedra
babylonian
sawyer
timeline
recommendation
bodies
##ध
needing
pussy
internet
marcos
pile
spike
46th
pivotal
[unused861]
prisoners
##igo
##ᵤ
##‖
blades
center
volta
`
recipient
57th
##via
copies
narayan
sanitation
85
duo
##len
cocky
examinations
religious
poorer
goddess
unexpectedly
##lard
filipino
mutant
mastery
adjusting
june
small
philadelphia
longest
ministerial
favor
##plicity
retrospective
ミ
thematic
carrying
[unused743]
oceania
atom
express
dragons
agencies
expansion
grande
tamara
transitional
fifteen
looming
¢
annoyance
recommend
##dya
[unused660]
year
##linson
renovations
kurdistan
bills
excluded
incredible
thanked
ᴰ
cock
##nator
coping
analysts
scoop
turns
##dek
stats
##utus
lamb
cumbria
[unused55]
tulsa
crore
spokane
responsibility
##風
outspoken
amazingly
mayoral
poland
slid
##hora
##of
toilets
falcons
##some
lowland
##rdo
found
mixed
##rok
semiconductor
な
parks
kentucky
[unused576]
##bag
秋
bangalore
once
bibliography
aleksandr
scoring
buttons
28
donald
wickets
relationships
見
[unused609]
sheldon
escapes
##↦
pouring
directorial
⺩
imperialism
##can
martina
armagh
massimo
##ilia
##selle
##sław
##cliff
legal
myers
stills
waterford
##nx
gundam
furry
saxe
examples
leinster
patrol
assumption
ф
starring
railroad
ᅧ
william
abandonment
nantes
כ
posture
posted
##drik
etienne
η
##ist
granny
irrelevant
togo
wife
files
consists
vigor
alicia
##ι
understood
hook
##fully
broken
##53
##voking
nicola
radar
##tropical
honoring
requested
guide
procession
commentaries
##gi
cosmetic
monaco
1870
jurgen
##tom
colombian
livingstone
intersecting
crude
seventeen
billions
nero
##nob
##orus
#
let
clone
clement
##und
celebrated
templar
heterosexual
allow
##ᵘ
matthews
genuinely
fujian
equilibrium
##「
##tock
press
sabine
medieval
evolved
sector
greaves
223
nutritional
##isman
[unused674]
pensions
status
##gol
layered
##پ
łodz
armand
protected
wi
pillows
pierce
dimitri
ranged
##ructured
pointing
trout
overheard
guillermo
icons
ironic
pass
##oration
##dget
defending
##辶
handwriting
##囗
##istles
reds
manitoba
##tine
characters
examiner
handles
##nessy
##feld
1400
guantanamo
vowel
inclusion
herzegovina
cutler
##ference
dictator
cantor
sufi
elsewhere
語
recognised
ng
##ъ
sip
berkshire
##bold
pang
darwin
hailed
shelters
adjective
ж
feedback
##'
mont
observing
##erin
thrusting
##date
##dit
hans
bubba
unaware
free
former
##works
##yala
sweden
illuminated
alyssa
persuaded
palace
##ན
##dier
##orth
[unused115]
ր
pest
pitching
##tl
vittorio
triggering
atlanta
involvement
shrugged
endeavors
copying
李
wallet
##ring
rte
belongings
##olved
fulham
entered
[unused239]
145
mystic
##channel
##eer
intensity
diminished
crimes
stability
宣
tuna
alt
aegean
cubic
servicing
flea
wcw
diocese
##ulation
various
readings
eurovision
alessandro
##mist
06
stage
##zle
palm
[unused363]
aggregator
##oric
knights
##aka
[unused744]
fingers
elm
pigeon
beaver
pastry
inevitably
outright
britney
##ile
chimney
casual
shirley
ben
horton
thus
##lov
simon
##₹
jiangsu
##橋
enrollment
##trum
mouth
saturday
##mba
antagonist
kn
turnout
ף
replied
##ively
niger
qb
nucleus
##rling
nemesis
defences
sail
mysteries
wrocław
cell
љ
misconduct
unnoticed
protector
taluka
mbe
tracking
##rly
arena
adjusted
##ק
lifted
##ishment
construct
gigs
stupidity
##uising
##kla
partner
patient
##flies
∅
riverside
##otho
##sons
##є
nec
runners
##ime
##β
prostitutes
egyptian
load
engraver
prefer
lead
hooks
disgrace
inward
surveys
##bush
½
1722
umbrella
course
##rel
wound
staunch
ן
divorce
barbara
optics
quantum
evaluation
consistency
manipulation
mentioning
barcelona
linux
cb
##oit
fk
shivered
exceptions
turkey
laura
occupational
beach
##urity
forrest
reconciliation
hiking
lennon
mclean
##sie
##hler
saul
##⇌
indicates
informs
columbia
abc
persistent
##maker
sequences
pepsi
flicking
cite
ی
relativity
surprising
##hol
olds
definite
b1
reserved
distinctly
cox
##liffe
archaeology
##pic
turrets
foam
zurich
##asse
emissions
unauthorized
calculating
stimulated
urge
[unused362]
##rol
##quay
##uls
##on
1603
borrow
favorites
scripted
##eal
武
kelly
帝
brood
გ
186
##rons
organist
romeo
314
##崎
pursed
fantasia
wee
recreation
climbing
swore
prevalence
tbilisi
[unused932]
gibbons
##13
kitchen
participating
##hism
cinematography
##ರ
rook
##mined
minnesota
##sett
serie
dawned
genetically
173
freed
rate
connecticut
ventral
inmate
ren
kinase
radiating
promotes
##¾
sheath
applause
piled
gliding
indirect
suspended
theodor
simmons
風
refused
quadrant
##ndi
audit
chevy
##dation
1641
attacking
devastation
brown
duck
has
detailed
bland
spaghetti
fail
holster
arching
chained
terrified
britain
leasing
shouted
wreckage
juarez
laughter
tilt
martin
bile
attempts
rightful
andrey
1685
rehearsal
validity
trump
julian
[unused78]
##wara
ध
vortex
belinda
wien
v
was
redevelopment
inconsistent
voyages
cheap
accreditation
1947
##yt
rebelled
myths
phosphorus
farmhouse
computational
ict
abbess
affiliates
garde
stan
rolls
stored
advances
thorns
appellate
26th
falkland
ewing
senses
stu
2006
biceps
[unused894]
jr
periphery
mets
roared
##weiler
communists
shells
cleanup
expedition
amount
wrexham
[unused365]
##rine
santo
##gg
bop
mia
skeletons
brick
##ttal
##torium
subspecies
convenience
clothing
##trom
discrete
flipping
##ential
der
bartender
bulky
1975
bahadur
kicks
emeritus
entirety
locker
##chen
bombardier
moravian
fantasy
##nding
inspiration
hectare
often
tuscany
threatening
##gin
kai
restore
##dini
hazel
motorola
aj
notably
charlotte
##wives
[unused542]
ares
tanks
244
bayou
skip
refurbishment
graz
calabria
##athic
##bed
##laise
apple
sighting
##ƒ
campaign
gupta
[unused519]
beck
swapped
addison
ve
day
grimace
reinforcement
able
##hers
##nova
leap
duplicate
##,
##4th
willard
##cin
夏
greg
enzo
dakota
tub
distances
##sson
[unused867]
prototypes
##ᵒ
swamps
weekday
classified
yer
sensor
create
conan
evolutionary
africans
jakob
batted
ballast
eugene
##ah
detrimental
obesity
[unused432]
che
##井
##ocating
cringed
verona
buffet
##tt
bottles
basics
associations
biennial
shredded
##ices
門
ˈ
clayton
another
##ay
incorporated
nervously
inhibit
wesleyan
idiot
ィ
caroline
defend
scorer
351
isotope
shipment
concord
miraculous
traders
01
bang
unsure
constitute
characterised
##馬
##ype
devlin
acronym
kannada
bet
descriptions
lid
peacock
##erton
brow
leases
5
blown
admire
##ʒ
pictures
prison
channel
##jana
continually
developers
##城
deviation
expanse
silvio
durham
estadio
turret
##gpur
##dridge
overturned
db
##oid
revival
thread
teenagers
admiring
modify
culturally
##mate
usual
upon
##case
[unused623]
containment
be
drafts
czechoslovak
warmly
greek
[unused541]
genome
unlikely
inquiry
kidnapped
mohan
##sch
biochemistry
##osi
sparhawk
##lands
verbal
african
cream
##བ
fingered
millions
hayes
nur
abbas
etc
boutique
judd
ख
carolina
[unused182]
considers
##rada
tau
corridor
广
##cus
soaring
##国
##к
brasil
##ox
biology
##ught
##dote
communion
niche
exemplified
decreases
##פ
fog
undercover
##chule
##personal
romanian
##ego
’
minds
192
ghana
rail
metropolis
diet
[unused561]
##省
dress
receptor
flawed
protestants
addition
longtime
cookie
since
case
buzz
clenched
cleveland
##imov
fairchild
sights
##उ
parameters
##wad
solemn
jen
##eles
respiratory
op
##tify
relating
##pate
gravitational
##ץ
antique
##erence
amplitude
##ys
cassie
lama
decision
regulations
hui
[unused616]
traveling
out
##ule
##leaf
ranch
##cs
becker
clarke
essay
warmer
reunion
mixtape
##it
##ply
claremont
##ive
mandarin
bewildered
chassis
atv
britannia
prevailed
explains
foothills
entering
collecting
honoured
##iling
recent
##he
##pe
vampire
melee
##子
immediately
1600
twenties
##lessly
alignment
historian
ego
[unused939]
appearance
kings
299
cheng
##bution
declan
rush
50
##₇
liar
minority
hitchcock
distress
theatrical
126
brittle
parry
haji
##word
aggregate
rhodes
estimated
cyclone
luca
statement
##rgan
best
[unused81]
principality
thailand
##´
fay
limitations
pledge
soothing
##林
あ
akbar
fischer
excel
standing
my
portal
either
##zes
[unused282]
staffed
##eth
crosby
##cha
bunny
[unused266]
valencia
##hone
##hai
myrtle
##ytic
##sam
##ひ
hurled
pretty
roy
##orf
ᵇ
sgt
executed
chronological
guess
shoes
dupont
banquet
promptly
bears
chorale
o
scouting
otis
##week
fullback
[unused291]
cameo
breached
distal
vice
weaken
trieste
categories
howling
ticked
bathrooms
surfer
##cliffe
tingle
₅
scheduling
ian
nineteen
enforce
athens
1786
responds
beta
880
succumbed
hon
beak
##lco
argus
regiments
managed
stuart
differs
it
##shan
##cating
##essed
insisting
heroes
northamptonshire
##held
truly
[unused495]
oliveira
concentrating
##rth
gonzalez
cyril
##こ
drove
grove
ours
meiji
asks
ع
?
bailey
implant
##cen
watt
94
##broken
gough
##omp
carriage
galaxies
labourers
##yang
partisan
barbed
pe
retracted
assault
inflation
ely
b
opium
argued
tonga
brunei
superficial
sparks
tangled
অ
##cton
lorenzo
pro
##urrent
taxonomy
sydney
##mb
[unused354]
neighboring
##arina
lived
230
de
invalid
nails
transforming
flashing
ferreira
impatiently
1766
##uz
##vara
##:
burt
brutal
chant
##cars
pietro
flutes
1a
##pal
levy
dropped
##保
staging
illumination
poses
nepali
undertaking
288
caleb
##nosis
skiing
salvation
parliament
galileo
##udy
champs
baroness
jug
sorrow
##cano
clubs
swung
passports
operators
##than
baseline
##yria
employee
##oko
cave
montrose
ripley
##ₓ
removes
##kas
restraints
bjorn
welterweight
##dies
##dian
##ue
ad
solar
classical
shut
##bound
icc
##som
wynn
periodical
newfound
##く
enlist
relative
##カ
wembley
[unused730]
##治
jolt
heavily
listings
rotating
notation
socks
sweets
drums
multimedia
verde
insist
iroquois
greco
ronan
##iner
volunteered
successors
good
##49
transgender
swamp
view
deported
##oun
[unused200]
remember
##roving
eclectic
pained
[unused227]
##cona
twins
distinguishes
willy
privilege
##75
attended
venues
##enas
poor
##ide
[unused62]
briefs
谷
##ہ
until
shadowed
##∅
[unused869]
heroine
##χ
[unused987]
terrifying
climatic
sustained
mccarthy
sherman
248
quarterly
catches
##ಾ
reactivated
##đ
[unused740]
thrill
contractual
sipped
reserve
funnel
##ს
tightly
##rdi
transformed
##り
##uan
meredith
goldsmith
##izing
##lizer
花
isles
wesley
graham
canon
programming
fraternity
korean
fuss
newton
sixteenth
dancing
commemorating
chicago
##rar
murmur
##む
##sler
unrest
##listic
[unused30]
freshly
lucie
##tten
rejected
wicked
repaired
reminds
seriously
facing
isabel
ripe
corresponds
128
ᵣ
zero
centimetres
carrier
selective
ھ
unlike
我
##igh
troubles
equipped
willing
##imating
teamed
##ahu
grimsby
##ind
something
dazed
##46
bottoms
[unused159]
bacterial
commodity
##typic
##logist
guarantees
forceful
airport
enterprises
arranged
##tern
plague
aren
stabbing
stairway
exceeding
achieving
true
##quil
designer
explosive
capability
officially
entries
##hue
phelps
ratio
yeshiva
hutchinson
mansion
##yo
pads
grasped
wagon
##aster
transforms
##worth
ᄐ
reason
iberian
martyrs
published
##iard
45th
。
mannheim
[unused956]
tube
cemeteries
powder
drained
[unused970]
scents
##elial
synthesizers
##minating
danes
saddle
##cial
solos
hopeful
differentiate
others
bremen
30
lumber
章
enters
203
telecommunication
recognition
outfit
minogue
##rvis
familiar
tanner
##tens
poke
gladstone
crown
securing
##£
opaque
guards
ecstasy
atkinson
gleaming
certified
525
##ode
##¤
knocked
心
##inkles
wear
##mans
##33
hu
##vable
budapest
colors
handheld
parchment
canteen
franco
##ת
gazes
referees
creation
##offs
satirical
##主
homeland
32nd
typical
##eki
##sling
bred
temple
given
##竹
##থ
ceremony
wilcox
cafeteria
deployment
rent
cages
choirs
##vard
##thes
grateful
eddie
##け
manages
between
current
coastal
knelt
discuss
judgement
novel
##atic
odin
repertoire
##ntes
belgarath
jennifer
##tai
bi
harmon
eels
##hr
fitness
chants
cisco
state
logging
improvisation
##mbe
resources
fat
chimneys
1936
signaled
##gan
operations
witch
penis
⁰
joking
buffer
phosphate
upstairs
gloss
vegetation
##heim
privately
jailed
monument
sculptures
issues
dat
afar
joined
coco
slapping
##combe
1016
fanny
dispute
1663
granted
unitary
roll
bloomfield
bam
proof
##80
##dick
lila
dirty
edge
perspectives
condo
[unused594]
villa
democratic
##turn
rainfall
textual
mandy
##note
emigrated
uppsala
malaysian
dung
honourable
adultery
elisa
roast
##sts
osborne
不
##unce
rashid
ownership
bien
secure
louisa
##մ
erica
cinematic
222
##ち
pneumonia
##enary
cylinder
observer
guitarist
soviets
casa
poison
##目
proponents
slick
arrogance
発
every
##cloth
[unused981]
toyota
hawaii
punt
clarissa
202
switzerland
brandon
nurses
##le
roses
detecting
##ided
##郡
backs
##zog
##clusive
canning
undergoing
wavelength
creations
[unused236]
##kel
ni
za
[unused134]
restraining
jar
lieutenant
hawke
taxonomic
む
##ο
##wart
virtual
oakland
hoover
scientist
##ock
instructors
interrogation
pink
##mann
plain
##ف
ives
rents
shouldn
rainbow
##mme
hooper
historically
richie
weimar
hybrids
##smo
barnsley
averaging
jozef
brooklyn
月
##isan
buchanan
bout
reputed
polo
fridge
##dal
urbana
##lica
medications
wet
lightweight
switches
conditional
computing
worries
trey
frustrated
##physics
light
sweeps
cremated
quivering
reviews
indifferent
stunts
partnerships
wrist
andreas
trilogy
standardization
pulling
trees
francoise
[unused387]
hudson
metallic
curiosity
##ller
via
busiest
latham
690
##yon
ambulance
assistance
killers
broker
bard
nationally
##erty
##chs
boy
lgbt
endeavour
liked
helmut
instant
guilty
##cheng
sovereignty
gaa
##義
ɲ
##rogate
archdiocese
brewster
ice
averaged
teenage
conductor
goat
contractor
milford
ufo
spain
##rchy
lining
##uki
jerked
##wal
creators
retaining
hm
proximity
diploma
dominion
sandstone
archived
consolidate
chaos
##resses
straighten
brook
##itch
tyre
metis
vocational
[unused216]
##tin
three
bolton
sentiments
ed
programmer
cardinal
blockbuster
possibly
[unused485]
candi
prix
basket
##nie
##ₐ
##ctable
kind
allegro
##owed
##oides
plantation
##hom
##ан
##yu
spoon
mandated
colleen
gland
solutions
dessert
yvonne
chilling
promise
hoarse
sc
closes
##23
propagation
microscopic
##den
##tz
##mates
##ada
##dan
501
[unused311]
sought
1690
predominantly
melinda
laws
1952
guild
silicon
##rag
jason
names
##net
brooks
mercantile
confirmed
under
##dice
operation
lying
##agawa
hacker
spawning
##sley
siegel
angola
brandenburg
chartered
##river
provence
##ammed
fountains
)
transmitted
chill
cricketer
陽
dominating
german
burned
##encies
trusts
lady
cannabis
mcgrath
##anga
deutsche
##may
snuck
##gies
membership
occurrence
grange
multicultural
dependence
choked
activism
fans
##ulata
newport
##chester
bull
##venor
avoiding
##fi
intuition
2001
##dad
association
scotia
highlands
scandinavia
federally
strange
clasped
australian
1762
mcdonald
##tus
ュ
vatican
cain
toys
##秋
comprehensive
slip
cunningham
fare
teresa
ammunition
altered
##jected
moss
dracula
bilbao
##phobia
##ₕ
##nta
heating
noticing
の
hackett
##iza
vans
chattanooga
##500
mating
ck
easing
waller
vilnius
bt
##ger
[unused126]
##marine
##uro
##skin
cheekbones
aden
##cytes
wyatt
pinched
##ton
lucha
raided
jarrett
regulars
##ids
unsafe
propellers
##ual
1800
##tose
##を
ம
moritz
（
facto
juliana
##ome
1652
rhyme
tender
reza
seeker
[unused635]
finally
para
treasury
##hen
simulation
##bry
##力
divisions
##ical
cameron
bath
titles
##ety
bought
corridors
niagara
[unused718]
[unused467]
differed
sends
cure
au
casually
##rlin
##uer
bing
##emon
′
succeeded
monde
provisions
##tula
nutrition
its
je
stylistic
facility
artefacts
[unused391]
ʻ
##կ
commentary
voiced
symmetrical
##tate
lied
asset
contained
sober
bosch
proxy
innate
kerala
improvised
loaded
##imeters
penalties
##scopic
berman
##titled
1954
oakley
barren
##ndra
diagnosis
aztec
lucian
lions
atoll
tighter
iss
meaningless
##hal
surprisingly
catalytic
libyan
woodstock
costello
resolve
locus
intact
pomeranian
months
⇌
[unused256]
[unused536]
eastwood
fellowships
adjust
quantities
incorporating
harper
team
##ovo
pressured
##rre
definitive
##back
staring
blouse
fuse
salvador
rockets
eat
northwards
##gio
murmurs
##lok
mixes
ল
dax
phillips
lyman
##sport
##holes
flights
project
katherine
oman
speechless
starr
devoid
caller
purity
##bine
foo
##cci
reset
[unused374]
downhill
##hausen
upwards
extraordinary
##北
##kata
throws
mani
ligament
##mbs
ほ
slight
clicking
breathing
##athlon
af
##sure
##etched
electric
recover
##aday
around
##turing
outside
curtis
##bb
opinion
##mal
localities
panchayat
revised
ornaments
##―
trick
##main
planes
##maid
ministries
metre
sources
wages
resin
podium
brotherhood
pillar
degradation
god
rift
1859
agreements
##tight
sensual
instincts
synchronized
aria
psychological
referee
6
buena
##ghi
##ogist
相
simeon
cupped
arson
believes
rockwell
₩
doi
times
weekend
regulators
versatile
cu
exploded
degrees
grammar
ז
fellow
定
ᵥ
##earing
barred
tweed
minsk
horne
crate
slides
ग
palazzo
[unused138]
forums
upcoming
infections
plum
drip
resolved
buren
warwick
spire
ousted
airlift
##ished
##н
matthias
moscow
miocene
ezekiel
##rmi
entropy
mortgage
surrendered
madison
consort
adolph
varies
heroin
zagreb
nazis
##mut
ike
reducing
respective
##uary
##ilo
burn
cecil
う
[unused497]
hire
banished
##grant
##70
[unused585]
penny
prevented
doubling
galveston
driveway
utilize
proficient
borneo
supervisor
rankings
narratives
##tated
discharged
legislative
coral
##star
inequality
ो
stuttgart
name
##sitor
helene
bundles
rwanda
mole
plains
holding
adapt
##弘
flourished
##bot
illustrates
institute
##tial
##ₘ
mesopotamia
catchment
2013
accommodations
cycle
ม
cerambycidae
##ই
dec
##め
##zzi
##stead
illusion
harlow
definition
arts
wash
1830s
shall
flying
##sum
cheating
ranked
nintendo
uzbekistan
avant
evil
stockport
ن
##gall
overrun
suppressed
dim
automobiles
[unused959]
31st
##ao
crashes
python
chemicals
produce
nelson
##з
cal
bells
saved
##ata
ー
foundations
##un
extinct
##atus
plants
##to
ᆷ
scholars
tugging
##м
cooks
comic
concluded
pain
obituary
ashes
##copic
##bling
miserable
##♭
cosmic
punta
plumbing
##tral
##elman
##roy
##venting
bavaria
prayed
favorably
eleven
muir
freedoms
marquess
comeback
##play
programmed
##lynn
compelled
rites
##rai
intentionally
##fus
guerre
2004
southeast
##sby
wage
threaded
listen
fowler
widening
tire
##lal
comparable
prof
survey
instrumentation
##lah
141
##phonic
##nostic
coaching
##oint
##md
casting
##wehr
magnetic
shields
sermons
injury
vc
doncaster
##ᄅ
arrests
grumbled
auditor
amar
herds
rude
sweeney
dormitory
##ix
nothing
##sun
consciousness
catfish
1710
regeneration
pointer
##ᅥ
ა
shrieked
translucent
engulfed
courtesy
##nism
olga
##stream
##nan
centrally
##men
‰
used
boots
mai
pediatric
organism
##ː
minerva
supported
##band
plastic
##yck
undefeated
gs
locked
spots
rapids
school
##wicz
already
##幸
35
catalonia
greatest
##arm
startling
451
apology
329
beaufort
##runa
cm
letting
eva
spelled
anya
##gill
criticised
western
unsuccessfully
fatally
engineer
latino
##adt
satan
hygiene
##cide
palermo
collision
##ogen
mummy
potomac
jones
##oka
denise
sir
##イ
##osphere
condoms
bays
nascar
breadth
storytelling
clinical
grandmother
crucial
##rned
aforementioned
reformed
osman
artist
rei
##posed
88
influenced
sped
compared
nokia
baby
##侍
##ardo
##ifice
figured
principals
##´s
radiant
ス
mahal
burst
personnel
stepmother
hispanic
es
hilly
##lon
##gia
duets
##zzo
##rita
04
axis
arms
realised
lantern
recommended
chapman
##up
380
classmates
hindi
euclidean
wellington
offspring
sentinel
schoolhouse
##scope
disagree
##train
guam
##fect
[unused608]
news
##end
sf
ɾ
kimberley
vera
four
opponent
འ
illustration
##icus
memories
musician
2021
grit
spinning
deeds
reward
[unused260]
##zaki
army
cultivated
[unused776]
hartley
jurisdictions
##rgo
checks
skeptical
pit
disco
[unused729]
clapped
##stems
##iny
von
##ami
##borg
armenia
[unused721]
arya
700
##pes
[unused904]
[unused610]
lister
shea
transcript
shit
dirk
##ality
gender
flashback
##iated
emerging
barrie
archway
corners
##breaker
slang
ao
1777
hartford
[unused638]
servers
relegated
evaluated
dora
disadvantage
harald
harmonica
##ξ
##raction
collar
porch
flushed
tight
storylines
screens
mammalian
[unused229]
320
##base
computed
persona
maroon
sensed
snacks
rachel
residence
cola
overseas
##ct
intentional
harlan
planned
##q
fatalities
[unused601]
launcher
sharp
##cos
things
motel
coastline
median
##》
extension
##its
markets
punching
spartak
1850
[unused386]
preparation
duties
[unused783]
transparent
assembled
reiterated
remark
webster
jaime
macdonald
##fixed
symbols
kaufman
opera
orbiting
hammond
reconstructed
garnered
[unused583]
confinement
##ς
huntington
cecilia
birds
brain
ex
##ngo
elected
paddle
confirms
surf
##ato
wizards
indictment
deliveries
transit
actor
fatty
##₎
monastery
highway
viking
taps
emperor
##華
pickup
int
fascinated
madeline
[unused167]
monsters
##aves
vogue
##ning
organize
alternatives
strawberry
incline
harley
discover
flaming
##ʔ
ʒ
choreography
264
1993
hurst
rebellion
thyroid
##vre
##ances
dion
##oles
guerrillas
cid
##8th
accessible
##tec
heads
vijay
sitting
world
supply
queens
cable
##6th
bent
horned
མ
suburb
crossed
heroic
hogan
π
##hunter
morale
1621
livelihood
[unused957]
lamp
server
eastbound
di
halves
empress
[unused508]
bourbon
grazing
##ar
##pper
[unused539]
beverage
chaired
fields
franchises
[unused16]
staggering
suv
classroom
vital
prepare
##陽
##ptic
[unused762]
∗
vs
##ф
ripping
leaked
casualty
censorship
nonlinear
345
verbs
ninety
designated
ignore
fury
##o
bribe
blacksmith
hostage
forecast
internationally
medication
squirrel
alberto
##yen
##ɬ
paper
[unused409]
advertised
norwegian
financial
235
forbade
squad
lower
650
empowerment
blend
maids
slabs
sony
excited
fen
##ₛ
ח
##phate
reinforced
##lita
only
refugee
children
11
clash
cortes
##ina
endeavor
marta
##wind
frustration
##my
##gh
nilsson
##?
diana
p
##⅔
becca
draft
releases
knockout
indicator
mathews
nephew
##明
undoubtedly
socialist
tug
elongated
[unused379]
issued
microsoft
circus
roberts
burrows
##scent
pristine
multiple
257
laughed
##gley
generous
##usion
carver
syllable
##mt
##ners
derby
commenced
##not
lutheran
car
popcorn
marcus
disposition
romanesque
drop
kolkata
admired
swearing
bounds
##sir
tailed
failure
canons
subscribers
reelection
sacred
duration
civil
surveying
lukas
compound
minutes
##ov
tournaments
judge
suffers
nme
speaker
martinique
fragmentation
##ctum
cumulative
真
hike
creeping
paranoia
muslim
yue
mcc
scandinavian
##arts
##て
pickering
wilhelm
bitch
moment
passport
dialogue
disturbing
aidan
usher
salute
##tors
composers
encouraged
##ucible
symphonic
##berman
snap
pd
engineering
markings
rajasthan
harshly
whenever
bundled
ramirez
crying
garry
[unused152]
walsh
gaining
guiding
hit
sling
laser
baghdad
swaying
hereford
nasal
285
goods
fiscal
si
##eim
guatemala
component
maui
test
peggy
##aris
##isen
grain
malicious
minded
nad
inwardly
[unused95]
mag
gymnastics
##”
guinea
tide
##eration
strife
releasing
exodus
ignores
doe
guzman
peeked
inaccurate
メ
ransom
wire
brian
began
reunite
build
targeting
[unused696]
embroidered
downing
chinatown
friendships
saskatchewan
albany
bribes
padre
changes
sociological
г
##ron
##olin
phased
##rry
[unused907]
regulated
palatine
labelled
enacted
nikolai
maintain
indicate
incarcerated
detectors
significant
maitland
johannesburg
##nging
##bar
თ
declares
marcel
[unused131]
prevent
voters
alta
[unused118]
contacted
contract
funeral
島
notions
affirmative
transmitters
kidney
textbook
windows
iihf
coincidentally
transfers
metric
newsweek
##chio
apartment
##sack
##umble
##leigh
facebook
##fb
surface
dow
az
animator
cautiously
calm
embracing
cooked
##swell
overnight
ᄎ
reply
joins
##uk
1864
haiti
gonzales
necks
##rich
##tility
peaked
##प
gestapo
1828
smells
alterations
conservatives
mainland
sleeve
[unused902]
##udi
weights
ship
rann
##mas
intercept
awe
rhino
doctor
predict
nations
sentimental
rustling
sleek
quarter
sequential
shutter
stair
cole
pollen
grant
vanderbilt
nu
disciplined
uniforms
putting
##heard
torre
lids
han
breaststroke
carlton
##factory
pubs
##nad
instituted
constantinople
gestured
278
industries
zhu
##ratic
##lity
##hosis
translates
##30
##»
straw
##ciency
aldo
underway
marching
obama
brands
##orted
##glers
panama
1808
bowman
##rites
descendants
delilah
bellevue
heidelberg
##行
##nche
exceptional
kicking
looting
aiden
[unused669]
##urer
amplifiers
catching
reel
##mmer
galway
arise
howl
necessitated
[unused233]
##aba
testify
jameson
enforced
tacoma
sophia
ﬁ
ი
serena
island
bs
ara
howie
##gence
[unused316]
unnecessary
warlock
[unused971]
fierce
stationary
headlights
19
φ
surgical
vein
代
pounds
##llus
institution
professionals
discontent
##heart
##ₙ
[unused195]
arias
suggestion
batsman
pays
##chrome
crowded
touches
[unused574]
baku
additionally
20
street
passions
coloration
morley
##ower
shenzhen
[unused56]
rep
enjoying
jamal
ג
frequently
rules
amounts
##ย
publisher
usaf
editor
##kti
##ony
[unused8]
darrell
[unused504]
##cho
pounding
smartphone
commits
##田
grandchildren
almighty
cf
filming
dust
##uze
extent
intermittent
navigable
mechanized
reliability
##rug
euro
##neas
implicit
ronald
uncover
complications
ashamed
hovered
mausoleum
fitted
stout
landowners
conception
‿
##cino
hapoel
iucn
unable
admiral
performance
##ggs
revisions
##pher
terribly
marches
nude
conducts
demonstrated
ronnie
[unused388]
objection
kildare
##サ
fiat
differently
homme
[unused979]
loved
##iving
gram
knitting
##xt
flashlight
hits
queen
rangers
flow
##ك
sired
≈
boxer
circa
ட
hamburg
##代
##jun
betray
reno
veronica
poems
constitution
voted
⅓
larvae
seo
riga
technician
tugged
395
rubin
##阝
jett
fraser
devout
footprint
slam
italia
asbestos
bae
##liner
richmond
cow
##bler
##uw
##aria
loan
russian
hut
##print
austro
[unused518]
##acle
inherent
215
modified
##ckey
subsistence
illustrated
##tton
actively
half
[unused811]
precision
xv
[unused302]
##有
persuasion
arun
##ব
brackets
access
clear
step
##laya
mcgraw
##lining
effects
expertise
sung
excavated
usa
##τ
requirements
nigerian
##yles
judo
##ivating
tanya
vikram
[unused552]
##þ
##jak
onset
doorway
wholesale
lester
sixties
fishermen
mtv
tablets
##elling
work
##cation
##bn
##pts
growing
め
[unused726]
recited
liability
technology
tagged
scholar
builds
racers
munitions
vulnerability
brigadier
familiarity
dod
國
sp
高
##tish
[unused60]
drinking
arctic
##的
paw
brakes
fuji
obsessed
installation
##ral
##tment
vomiting
lima
flock
whatever
altitude
##⅓
##uel
emilia
lobby
##⁹
caravan
faults
moderator
840
##अ
##hae
depression
tray
##mura
adored
##dent
##stick
buzzing
uncanny
twin
jillian
##yn
saetan
bleak
affinity
sultan
acc
##pore
craters
##laid
ₖ
[unused752]
medicine
longing
defense
blossoms
grade
parochial
blinded
contention
##itzer
humidity
##っ
extreme
ethiopian
salisbury
mom
scrambling
mba
##nese
##saurus
##gist
circuits
ignorant
xiao
emitted
rehab
liquid
##isk
seemed
pyramid
rodriguez
repairing
##ez
reprised
constance
dull
chopin
kenneth
##ield
pants
##ooped
##將
jamestown
clements
athletes
projecting
##ever
brilliance
stunning
militant
signage
solve
apologetic
hallmark
venom
cliff
blinking
##bino
jacques
manuscripts
∞
##gr
constantine
evan
##ais
patriot
greet
##о
##男
corporation
##dda
england
travel
##wark
spaces
##bers
##upt
united
rex
lacy
intra
agency
##oder
[unused723]
funding
benito
##tance
handel
##lden
kung
##hel
##у
whisky
##nally
marker
caesar
mel
chunks
##oulos
renewal
ゆ
liter
substitute
अ
##bots
##mona
turkic
side
[unused704]
turbo
into
nmi
debris
opt
##oned
chung
##hdi
##een
seldom
professions
bearings
elbows
bulb
mayfield
##aur
terrestrial
treating
hydrogen
yukon
##suka
mexican
##dion
ismail
authors
charts
minimize
aubrey
currency
##ction
##野
function
##hand
wrestled
intercepted
overtook
confront
##tm
front
doc
dresden
canadians
[unused28]
aft
compelling
##ep
lecturer
corporate
conglomerate
sent
follow
կ
sanitary
##wny
brennan
tactic
untitled
##ו
sikhs
tread
locking
depictions
trophies
knotted
[unused942]
1794
discourage
enroll
helicopters
15
rebels
##都
threatened
recreational
awards
co
revive
corrupt
##26
kazakh
excluding
compressor
according
##ess
##ening
##dna
##前
feasible
geared
compartment
factories
proclamation
cheerfully
budget
chavez
cartel
revolutions
ballad
tracks
##ics
wounded
cs
##nsed
conscious
fein
stella
>
sponsoring
dread
nomination
##lster
##og
holiday
energetic
manners
protesters
foot
renegade
morally
haunted
humming
425
complicated
animation
shooters
alvaro
workforce
of
##rle
analytical
proved
1656
beatty
flushing
inform
puzzles
diagram
joyce
crystal
announces
touchdowns
tres
1852
##fall
joanna
mosques
##ette
##‰
##uri
##esthesia
charlemagne
ᵒ
disappearance
stick
cushion
calmly
##gny
gareth
gesellschaft
duluth
impact
##dro
41st
salman
forcing
wheel
julie
##艹
[unused297]
strung
isaiah
wrecked
away
inexperienced
##llation
sargent
##hine
##п
四
bruins
terminology
fortune
cynical
##ctic
subjective
##州
constable
floats
##年
rid
purdue
peck
generic
1840
economist
recipe
strategies
headquarters
₱
fishery
domestic
campeonato
[unused242]
##bbed
pitchers
notebook
lucille
eel
rca
marathon
79
ut
endless
halftime
narrative
##ene
departure
vehicles
##night
barnes
postgraduate
variation
##havan
[unused683]
[unused281]
##points
##mit
unanimously
downloaded
inspected
regained
##uy
1609
ն
sincere
hometown
preservation
motors
compton
##vish
ல
interruption
1980s
endangered
##德
ideally
exposing
shuddered
melville
position
mutual
christians
橋
##コ
gaul
mollusk
wilderness
##int
##tad
poisonous
##long
analog
swept
tracts
##poulos
acquitted
peoples
maryland
contrasted
20th
carrie
[unused625]
weiss
##ened
##oning
##cut
outer
laureate
[unused526]
##arte
##koto
hume
##bus
perfect
limiting
##ท
evenings
filthy
horticultural
ou
alleging
une
4a
##diment
⁄
##osing
pulp
##hri
resided
[unused607]
rockefeller
##fat
cheney
skyla
ambushed
tiger
rely
abrupt
subsp
stimulus
remnant
you
##bes
anybody
sutherland
##chase
174
attire
##claim
##rne
##kken
##iji
##oven
consonant
delicate
grinned
eagerly
helmet
##水
councillor
##horpe
studio
[unused755]
bright
englishman
liturgical
dancers
choreographed
swiss
##burgh
libel
thru
satisfactory
##佐
galicia
weighing
melt
industrialist
duncan
said
progressively
interspersed
booming
guns
births
[unused5]
2016
explain
##kh
societal
mad
accompanying
davy
1910s
206
verified
smiled
airship
[unused479]
receiver
lan
luftwaffe
tomb
neglected
regina
christmas
##ghton
sanjay
1655
##sh
automated
defeat
predominant
positively
##kawa
yao
nova
administrators
fu
libretto
inhuman
surrey
##uto
conquest
##×
221
threatens
dismantled
bhutan
klan
excuses
contests
verve
##rley
specification
greenville
creator
falsely
cochin
disputes
tribes
clawed
[unused908]
quiet
liz
pharaoh
attache
[unused615]
##hee
佐
##ians
worry
compartments
liking
[unused406]
reduced
182
hatch
##lius
accidentally
##oue
##bf
margins
##wald
peasants
idaho
rivera
balloon
##lessness
literary
##ز
[unused695]
austrian
featured
migrant
andhra
tudor
##i
daytime
1726
bugs
cliffs
##wear
spartan
soviet
##erted
limousine
odisha
messenger
[unused209]
towing
quote
plaid
loser
metacritic
computers
prosperity
##ر
45
##gai
ricky
ferris
moe
vaccines
slams
kilometres
pencil
electricity
methods
bartlett
clad
harrington
aerospace
##lva
jamaica
woken
management
[unused691]
patrolling
tennis
pontiac
attested
leo
chew
ceo
##uld
[unused133]
##ssar
hunting
chopra
##rium
greenhouse
##nh
##xin
futsal
supervisors
alps
competing
momentary
[unused955]
odor
utilized
survives
orange
slashed
underwood
technique
makeshift
topic
##zd
##ね
darted
comprised
awakened
##х
collected
copy
mega
##ip
hardin
finer
##rest
[unused207]
foundry
gasoline
caring
qualified
syriac
sided
60
recordings
customers
##plate
##osed
cases
##nko
##cit
bodied
steal
bayern
##nous
environmental
fisherman
##lain
seattle
attaining
included
flour
improper
differentiation
open
gall
bingham
##py
brushes
denmark
trucks
stipulated
blocks
workshop
author
##working
flanks
salvage
##lce
dutch
savior
1644
exhaled
prospective
〜
##kind
lina
harlem
cradle
pau
finding
piston
penetrating
madras
eyebrows
indicted
kashmir
entertaining
provider
poles
##fera
vhs
dyer
cote
uttar
parole
auction
##ம
rite
cdc
expecting
commanded
##naud
sweatshirt
nationals
appear
neoclassical
suburbs
lap
##script
क
prohibits
suck
participants
ginger
lighted
##cle
[unused644]
256
inorganic
##₃
##isse
##est
sep
syntax
laboratory
##eed
officers
##yson
bracket
donors
tierney
₂
provides
mode
directional
##idi
keynote
nirvana
grouping
writes
##tip
reverted
oscar
jelly
marche
jerry
speeding
##bbon
titus
le
##tadt
sabre
郎
##lind
[unused966]
chatham
encounters
contamination
qi
dismounted
turner
obtain
abolition
meyrick
burger
marseille
##ward
positioned
stocked
gov
vibrating
return
aquitaine
aqua
confused
1996
distributed
nhl
##hmi
wolfe
seats
seeking
advertisement
frost
610
...
million
receiving
bert
embroidery
praising
erskine
comments
colt
apartheid
prop
ethnic
shards
##に
heaved
tripoli
superiority
##ease
precipitation
bedrooms
vertices
icon
flanders
dreamed
ன
demoted
suicidal
##lies
today
##ail
specializing
condemning
£2
##eptive
##ctus
restrain
##hu
mauritius
castles
problems
financially
propped
woodland
90
impressive
glued
physical
cramped
##ssel
swift
##ν
legs
36th
wine
##oe
bazaar
going
politely
blogs
д
usb
sq
flaws
ata
[unused366]
strap
##ন
etat
##cek
oak
##भ
trailing
nairobi
zeus
furnishings
graders
##ement
basilica
##智
davenport
dental
polymer
exposition
authentication
maya
1550
concerns
punish
slopes
[unused560]
##meo
##mise
induced
mccall
oldest
baldwin
[unused642]
signs
health
rises
melancholy
dictionary
ghz
##ori
##lana
cheltenham
古
vermont
antennas
gary
##ن
##xide
fallen
decorative
dragoons
##eros
goo
davies
isabelle
[unused355]
site
semifinals
##face
interfaces
franks
demolition
##ming
centenary
nouns
steelers
jerome
offenders
far
500
pamela
trials
steamer
hobbs
1820s
shadowy
volunteer
##龸
several
shuddering
closest
communicate
airplanes
lawsuit
gemini
depict
ى
##メ
exploring
##iae
counts
##ours
flatly
breakup
##uin
rape
cookies
orgasm
website
##tman
cadiz
vertex
clears
″
fae
##mini
flanagan
lara
mouthed
messed
structures
honey
ska
##lars
embankment
accelerating
labs
mail
discusses
unprecedented
explosions
invasive
traitor
[unused470]
[unused441]
profession
cluster
[unused647]
[unused426]
interned
assaults
##pati
overlook
glover
insides
##ᴬ
1940
fisher
日
vulcan
guessed
wasted
tod
switched
library
##18
handle
zane
bratislava
larry
erroneously
##rous
ken
defeating
believe
perrin
ngos
grassy
skyline
seymour
##fle
rudy
[unused529]
স
##郎
golf
spins
championships
##公
scott
foreigner
academic
山
uncomfortable
exercised
fractures
and
frankie
scissors
1985
artificial
items
photographers
breeze
bomb
bible
leningrad
##cite
neurons
rf
shrubs
wayne
crop
shack
prisoner
xii
barrett
##9
##raz
macbeth
analogous
आ
tobacco
perspective
libby
tourism
replacing
historia
chandler
##nsk
##mology
knowing
spark
deluxe
risked
umm
aspects
prohibited
354
##400
identify
yearbook
pointe
shattered
successive
##ni
cebu
##lay
cai
apt
install
network
##沢
jess
citing
trapped
fitzgerald
diaries
twice
xiii
schooling
##ן
##ak
##ivar
##oj
thirsty
pete
fished
archipelago
wonderful
史
distinguish
twenty
guernsey
##rum
[unused917]
combo
elgin
nino
celebrates
bulldogs
leeds
##yuki
corporal
hospitalized
##|
twenty20
##rdy
jia
wes
##core
camps
erosion
##xious
affectionately
##月
##tour
լ
##~
jessie
heaving
weekdays
obe
finalists
marketed
sands
victoria
wandered
##ug
appropriately
ae
1630
transported
1707
owning
##ooping
upton
##ン
growling
piece
evans
stories
neared
mali
nectar
joy
##llie
shear
bowl
holmes
nikola
antibody
xi
octopus
angle
indonesian
violent
xiang
ride
##eter
maritime
pebbles
indianapolis
relentless
restrictions
arizona
overboard
##wo
moines
dvds
##kshi
rotation
man
millie
clinch
compromise
songwriting
colts
ongoing
hitch
##pani
senators
[unused165]
grossing
[unused493]
##var
conceived
₃
subjects
bangladeshi
acknowledges
uganda
prank
organs
atletico
penang
##tf
provinces
down
taipei
##fted
##cm
wainwright
flowering
medal
ウ
[unused89]
nonetheless
past
##ery
mum
rn
triangle
formally
netherlands
հ
implies
##well
ferns
akin
enclosed
[unused247]
porte
these
ventilation
##ulu
##ы
savannah
effectiveness
hacked
faculties
judy
##mart
##ert
ax
diplomat
cambodian
halfway
##omi
##rce
shaft
kneeling
preface
realities
##fying
⺼
descended
pursue
peg
strikers
costing
circulating
dipping
mission
##rella
[unused946]
##aine
playwright
jesuits
reintroduced
walkway
featuring
##wan
folk
lighthouse
##ᅪ
nut
receipt
hiding
kemp
jolted
##hara
stumbling
dunkirk
ida
pursued
##aking
300
smaller
import
giving
##sfield
avoid
encircled
vodka
##thorpe
##rington
##azi
warren
allocation
turnover
whistle
madonna
⟩
rebellious
improves
packaged
nikki
hazy
footing
board
drink
devils
35th
[unused906]
typically
oversight
iteration
patterned
backgrounds
scientific
rub
bloomington
guessing
##mute
mantle
transmissions
invade
carbonate
philippe
turing
nam
glances
1882
afforded
lex
aloud
establish
pure
romano
camped
##ovich
internacional
protruding
object
casualties
invasions
acquire
subtly
which
##ders
caused
tracker
belfast
followed
registry
##ttes
##inking
241
##ndo
drunk
evergreen
##li
unemployed
ɫ
つ
##cats
##dm
º
grounds
##ark
problematic
##kit
operatives
##rino
eastenders
expected
gale
hearth
##lb
injunction
##borne
rfc
stroke
georgetown
edwards
docking
##nington
channels
du
jonas
1769
##ice
193
[unused722]
##ca
##tick
supreme
rappers
deaf
curry
reinforcements
miller
hearings
being
speaks
andersen
##chal
sabrina
ll
##notes
##eers
tam
##ople
[unused925]
formulas
subsidiaries
sheila
encompassing
skipping
protege
belle
baltimore
album
greensboro
compact
obtaining
offered
complaining
ر
featherweight
integrated
##uria
sentenced
otter
probe
pool
boyer
##dication
fourteen
ふ
redesignated
scroll
pudding
##brand
hand
bernstein
1682
gesture
hatfield
our
costly
ryder
firmly
benjamin
##quisite
[unused480]
crumpled
ashe
victories
suarez
##jah
sumo
genetic
##ees
linebacker
##oro
##₄
bear
sg
through
supports
polynomials
##avio
##ishly
##mbling
transformation
##eger
clouded
evolution
wheeled
##anta
cater
decomposition
keep
##א
jessica
خ
nan
latin
[unused393]
thou
dario
resignation
impromptu
credit
output
##olt
horizontal
##oshi
[unused834]
shaved
beacon
convinced
watering
[unused748]
harbour
n
electrons
mayor
tries
incident
objections
bergen
couldn
##ζ
battalions
faber
kramer
dispersed
marginal
##enity
##viere
sri
finance
plotting
hiroshima
ɴ
azerbaijan
bride
crete
flat
avengers
no
om
sick
baptized
karin
carmel
patch
##national
ledger
ტ
[unused370]
[unused835]
##sc
coleman
workings
moldova
##ffin
celebration
[unused356]
amherst
fledged
portico
martha
organ
##urne
[unused459]
505
##hope
winnie
mornings
deposited
999
pittsburgh
##lch
peripheral
[unused149]
##ops
party
stumble
bigger
vote
##lle
still
reconnaissance
##j
relied
developments
3a
inflammation
##mail
encyclopedia
outskirts
sailing
disks
shark
local
industrial
##आ
##gue
rabbit
draw
##ি
marlborough
65
##erson
amid
##alo
gradual
fragments
countdown
##phone
[unused952]
temperatures
authored
##sdale
hints
backside
mischief
transitioned
symptoms
mathias
lux
fixing
allan
recalling
##ied
activity
dedication
京
browns
consideration
factory
##erving
notices
demetrius
turbine
paradox
achieved
shadows
iran
kinetic
honda
voices
whiskey
minister
stadiums
temeraire
frankly
preserving
##ball
liza
entry
uphold
delgado
##tley
ceramic
booster
ᴵ
##ard
ralph
students
liberties
chancellor
2015
gothic
curiously
##pon
oddly
frog
flats
rpm
petra
nj
dart
##far
affordable
inventory
michael
asha
d
strongest
##প
maxi
sheds
douglas
dishes
casinos
tortured
dante
hugh
##eron
##zation
introducing
##pet
##lves
insistence
alvarez
bilateral
madness
disappears
appreciate
restored
##cular
resulting
supplements
office
psychedelic
equations
turbulent
[unused305]
colonists
general
##opsis
farmland
elites
[unused283]
##bian
1956
heather
drew
risen
layla
browning
billing
hanoi
harassed
treat
[unused331]
##liest
##mont
branched
llc
genera
porto
founded
lend
boardwalk
[unused313]
cinema
peaks
9
protective
geese
gateway
rewards
ec
regret
pavilion
##eva
##uated
clapton
though
winced
lifespan
theology
##rey
##ivo
##icles
garlic
1889
ز
##gaon
[unused951]
affairs
broncos
riots
print
lawn
##us
##犬
sheep
saliva
demi
வ
gems
skipped
accordingly
commencement
acknowledge
##os
1635
expenditures
##lo
ի
[unused390]
interrupted
נ
critic
##～
mateo
##bles
##eres
transverse
oppose
у
##ija
daily
gui
68
[unused803]
##加
challenge
niall
##rite
205
builder
pizza
patting
haunting
defendant
##lating
##6
now
21st
unitarian
crossbow
sob
##vor
judicial
margot
brandt
leadership
resemble
whereby
hospice
boil
histories
ₒ
159
##神
natives
territory
cooke
nsw
charlie
cary
##川
digitally
shimmering
responsibilities
vlad
refrigerator
folks
##同
offerings
moaning
permission
39
basic
fatima
##pol
##坂
##社
75th
shifters
elena
allegheny
fulbright
galloway
hiram
extending
accelerator
##cts
thug
##dicate
##ᴰ
##schaft
subsidy
frontal
what
quakers
234
hearing
andres
sacrament
juicy
##inates
##gni
##vian
か
##ட
comfort
gregorian
creamy
trap
abolitionist
gentlemen
kisses
##ologist
প
suppression
feng
bonuses
bowls
[unused420]
bonn
heavenly
raju
blooded
##gle
pasta
rim
ո
[unused627]
kwan
poet
##usa
[unused807]
qualifiers
or
ml
unfit
carleton
##poo
##ies
organizer
fighter
longer
shocked
wartime
[unused492]
conflicts
##ி
bounced
##і
collins
##zu
##ო
enlightenment
goldberg
1982
notorious
govern
santa
##lus
perceptions
##=
squared
[unused856]
##fly
cause
shift
##manship
alexa
congregation
castle
truss
thessaloniki
chocolate
##ʿ
[unused454]
knots
tango
¹⁄₂
snapping
tear
appropriated
##igen
lifeless
##ʻi
choking
480
adamant
neighbours
§
seals
youtube
cozy
##ologists
credible
[unused719]
tickets
183
realism
weaknesses
[unused701]
heidi
leiden
ɔ
##ved
pageant
militants
elevated
false
吉
##ᵈ
burkina
[unused503]
##feng
bending
restoration
integration
sounded
##ος
sighing
towel
ducked
գ
gripping
##会
##pac
##bara
##এ
francais
hunched
ur
chat
[unused761]
darkened
slalom
agenda
eighty
described
##oni
[unused166]
herrera
prayers
[unused76]
scores
nowadays
marko
チ
we
indexed
1086
crowds
summarized
approval
lockheed
committing
distrust
wong
jesus
hallway
unpaid
keynes
##minate
abdominal
##du
android
comrade
precedence
founders
mixture
band
24
patton
immortal
##leen
chin
periodic
mrs
##iba
realise
stops
byrd
sam
##面
115
##avian
力
cuffs
[unused318]
geraldine
sahara
discharge
reveals
need
##ando
apron
ot
fusion
ames
[unused760]
cornered
lam
parasite
##jit
perennial
guerrilla
danced
steered
##lor
allocated
ada
constitutes
contradiction
olive
happened
fungus
##仮
neighbourhoods
##awan
[unused654]
recruitment
##oting
funded
enthusiast
##inus
##₉
performs
paralyzed
record
##∩
noble
integral
##比
cfa
priscilla
removal
separate
nadia
superliga
final
methane
pius
[unused205]
hugging
uber
plagued
beneficial
parishes
automation
[unused36]
authoritative
bengal
appropriate
疒
festival
groans
lobster
##mine
pulpit
racecourse
viet
haven
traits
manly
##ced
instrument
ne
both
brothel
broadcasting
fourth
condemnation
predecessors
remington
mitsubishi
inferno
junctions
antiquities
md
##thing
consolidation
##plin
meters
##person
joked
det
curse
visits
yen
academics
chuckles
chaplin
##bate
##eland
europeans
gentle
gods
jumping
doors
gunmen
athena
aviator
##utz
merit
christchurch
silver
¼
background
27th
panting
hitter
effect
susie
##hair
sami
dissolved
enfield
dolly
phase
##ria
inevitable
pledged
brawl
reactors
telescopes
removed
ashland
##wled
unlimited
##ව
phenomena
variability
##η
clutching
vinci
##ize
reaching
##⺼
1653
balanced
compensate
wingspan
jae
##花
teddy
1753
##lord
##⁄₄
##里
pulled
labour
locomotives
buccaneers
expulsion
gp
steward
stains
veterinary
##had
joo
invoked
tabitha
[unused521]
郡
contribution
retaliation
1715
##ash
row
technological
bali
dollars
cylinders
##under
##odon
takes
cache
##tek
##ler
##belt
##ʑ
##ச
mate
ʀ
mri
federico
##aries
chatter
##©
thomson
elimination
lemon
jointly
statutory
correspond
handsome
infringement
luckily
vanished
provide
[unused685]
boone
mutants
electors
werewolf
##rr
simple
feb
creepy
venezuelan
##any
comply
that
∪
leaned
amateurs
patted
hernandez
##erus
ponce
##博
weight
describes
drains
sighted
behind
cruel
1827
check
oriental
accompaniment
ivanov
evangelical
institut
shaking
zionist
distributing
##enko
backpack
disappear
adjutant
lists
parentheses
bungalow
##escu
fear
##enbach
push
cao
[unused125]
eased
##nds
##iad
##阿
##erate
whichever
unveiled
प
choice
magnolia
whistled
pains
specify
##jing
choir
##crest
[unused737]
[unused688]
[unused384]
tulane
nausea
offence
spectrum
##eurs
diseases
ja
monique
rampant
porn
traditional
##anu
downs
horribly
tension
nicholls
⁵
[unused604]
##beck
1874
metabolism
150
diesel
##`
settlement
##nca
composing
profiles
##sul
श
pornography
castillo
throughout
ring
audience
requirement
jude
granite
66
と
havre
coulter
aunt
cinematographer
inflammatory
##gned
captive
pegasus
[unused93]
directed
gaddafi
prohibition
cyclones
dome
##る
##tila
weakening
##is
##nberger
congresses
instructional
stepfather
boiling
lancaster
critically
##ants
franz
musee
presentation
veterans
elliptical
indian
giuseppe
heels
method
destroyed
mosquito
concepcion
##roll
realization
aided
outlaw
##ctor
poster
katrina
mildly
recital
interiors
nbl
exceeds
##ante
jump
wing
##gut
sexuality
##zcz
prophecy
highlights
nassau
toni
fcc
ェ
decrees
247
hesitate
barack
aisle
ර
bicycles
realm
xml
birth
hr
wears
genie
qing
##ʻ
is
loyalists
unbroken
generals
1640
optimization
wit
introduction
sand
crisp
higgins
javanese
[unused832]
danish
skimmed
mounted
originates
##et
##efined
felipe
pr
distinguishing
##hered
herr
containing
salim
ligue
retiring
##？
devices
smallpox
[unused359]
1890
plank
palais
towers
ლ
locomotive
forts
monkey
≥
rig
stein
resistance
regimes
grunted
sherlock
##enna
##acy
soon
##git
crimson
##chia
soloist
arrays
##boy
realising
font
##oir
carter
subdistrict
gulf
rumours
lombardy
exported
properties
[unused109]
antarctica
##տ
##mbit
slide
daisy
cincinnati
##onale
drawers
soared
[unused448]
mk
263
bbc
concerto
finley
danube
anything
beech
sofie
ancestors
anytime
none
##actic
##כ
##版
bars
jonny
[unused273]
white
##hh
relatively
##rish
[PAD]
sparrow
251
##icing
orton
##女
highlanders
celebrity
##mous
##apple
oriented
graphics
mis
[unused935]
##fire
medallist
ol
eager
spielberg
damaged
1675
maximus
tuition
##tok
elite
##coming
remained
##resh
disciple
##52
##stic
stand
spider
forged
momentarily
fusiliers
##more
branch
misunderstanding
calls
1765
depart
##uit
bonaparte
geologist
##won
irrigation
rowland
##@
inception
drag
##พ
theirs
exhausted
nesting
rosemary
imported
kari
1840s
adele
evident
[unused211]
hubert
thoughtful
lexi
##ctors
exhibits
intending
collaboration
foreigners
##economic
kenya
airbus
horn
##dberg
niece
excess
herbs
lance
[unused716]
conical
toronto
stimulating
gym
moreno
##tung
qu
##gaard
##み
paved
##zziness
discussion
monthly
amused
delaware
women
rigorous
[unused346]
bermuda
riding
##tra
permitted
representation
nominally
conspicuous
contact
##ʼ
hydro
horrified
middle
へ
hasty
giggles
almond
zach
tempo
connecting
##era
soda
wept
caine
##logue
160
[unused658]
sas
##sville
human
science
iona
##hil
##zh
miscellaneous
neptune
locks
780
took
supplies
ancestral
##org
[unused274]
310
##nology
innsbruck
##cius
peugeot
sobbing
##wife
thighs
##holding
analyzed
supplemental
panties
flanking
moniker
1798
bot
cleric
mentioned
##cta
cleopatra
mused
spectacle
##♣
ethan
routing
1860
sparta
##ography
richardson
mead
thanks
##athy
port
##ised
snoop
##amp
sequence
maguire
pens
##ɡ
partisans
whorls
##rno
kumar
exited
heavyweight
snail
retreated
chilled
##京
shows
destruction
employed
demeanor
saxony
##镇
countries
meg
cindy
premier
lingered
flee
332
reddish
consolation
1977
spoken
lurking
lizards
departed
theme
affirmed
##tur
dammit
36
arcadia
downtown
humans
sabotage
fluids
stubble
swords
massive
demanded
roxy
##ans
##ault
1992
##rise
administration
[unused208]
monitoring
##inge
magistrate
macmillan
hysterical
wed
##tlement
robotic
##غ
##cede
##ய
johannes
##graph
merger
##hyllum
1998
tanker
decorations
odessa
siren
##御
equator
skinny
pablo
epoch
##vel
scratches
tunnel
differential
commence
##fulness
authoritarian
finish
wnba
##endra
হ
##nard
fargo
praises
shoulders
158
##cious
##hip
drives
salamanca
color
marc
##till
richer
concluding
beloved
behaviour
hornet
tad
snyder
[unused453]
hotspur
arthritis
kan
ash
[unused3]
[unused664]
area
simulated
convenient
italics
carnival
33rd
wants
317
##ddled
philharmonic
melodies
comprises
##land
hercules
gala
continents
sits
##dam
visitation
##finder
temps
##nidae
gonna
##ю
[unused193]
chromosome
offences
exams
bishop
applies
##火
wentworth
youthful
[unused550]
abbey
[unused114]
regan
##rna
styled
intends
bohemia
noon
coinage
amalgamation
##vo
malcolm
##ota
deux
semester
twist
ground
cap
ones
privy
shallow
intermediate
##kei
intricate
##hya
unfair
##গ
[unused249]
colossal
container
##esh
##ᄐ
taliban
1994
henderson
nightfall
手
scowl
elliott
career
outdoors
croix
toss
##skaya
##堂
geological
armies
##ᄒ
killer
##dora
##bola
juventus
learn
jingle
failing
##4
sad
manning
favourites
##kos
##drop
verse
##ins
##yp
advancement
nora
fee
mao
education
##nical
##np
worcester
murdoch
attorney
protects
overtime
[unused566]
diablo
к
forum
283
wedding
止
##〉
[unused11]
dowager
storey
方
etched
father
##ala
##ffen
seemingly
##basket
##inski
cigarettes
urban
giro
grinding
[unused880]
##be
centred
insight
baptiste
coliseum
refueling
callie
alcoholism
collarbone
valet
bonds
consumed
julio
congestion
representatives
##ouk
umpire
##evich
unreasonable
detectives
##etz
83
##umi
[unused415]
beads
tanaka
##enay
##ping
sergio
policeman
dane
fry
lucinda
orchard
closely
examination
hickory
claude
dot
kettle
retrieved
substitution
contest
asia
##金
nfl
wallace
fabian
marketplace
jungle
harbor
##terol
##ル
##icative
dish
opus
magic
##22
busy
bowling
fates
intervened
pavement
##ipes
poll
[unused612]
corner
midway
palatinate
##worm
xu
aba
hampered
##ecin
convicted
squads
##º
plead
banner
hector
confronting
##ʌ
siege
williams
saving
##enham
tighten
taste
ვ
credited
sampled
‐
##₁
##ductive
1951
alongside
telegraph
thumbs
netting
cube
smashed
##hana
##xa
su
aziz
indigenous
22nd
whereabouts
similarities
beckett
remove
lissa
[unused168]
karachi
1725
chains
significance
##relli
##iter
##ave
gasping
wake
balcony
stinging
##ła
jerking
ahmed
streaming
##hop
archive
##tian
##js
1611
1683
##oh
1688
midfielder
##অ
painting
declines
##dra
##scribe
abstraction
measured
implements
aviv
[unused833]
boulevard
appoint
estrada
clarkson
implementing
##ක
wardrobe
##pt
stressed
sarcastic
induce
allegations
↑
freedom
traversed
##cie
somber
##nik
eliminate
murmured
province
cultivation
tapes
thanksgiving
##va
potent
##四
[unused88]
patronage
surfaces
handicapped
explore
towns
coptic
communities
saxon
securities
##kar
corrected
bachelor
replacement
##ita
unlawful
essence
wednesday
ultimate
[unused537]
flores
believing
corporations
councils
ო
vibrant
squealed
gladly
celebrations
pipeline
burundi
##香
##hof
##ˡ
ortiz
chrome
beds
facades
cosmopolitan
oricon
controversy
dared
deterioration
subcontinent
flinched
alto
trek
finished
trombone
manner
cornerstone
lac
##asco
democracy
absorption
##ₚ
##kumar
matching
muller
fortification
hugely
[unused491]
brock
crawling
conclusions
##ke
fiber
walked
[unused903]
inhaled
##不
wurttemberg
olympus
##tead
generates
arches
##27
mayors
topped
##ely
lay
mobility
presidential
inserted
##hm
bea
##ع
snooker
eps
conde
byzantine
console
tapestry
[unused517]
walkover
amsterdam
fenton
al
ashton
##oons
hertfordshire
[unused948]
ந
simultaneous
truce
custody
opportunity
undergo
tempered
spiked
panicked
stack
tessa
1810
hz
##ffi
##wee
abd
tools
##60
fixtures
dash
patron
emir
##ing
ב
[unused977]
scowled
760
subconscious
independent
impose
voivodeship
##ride
##ης
improvement
maha
wells
migrants
winding
andrew
[unused199]
##ʃ
balloons
glenn
pardon
roberta
thayer
desperate
[unused514]
diamonds
comedy
dreadful
arch
enhanced
pt
##app
interval
thorough
1814
87
jun
haute
deal
normandy
amendment
biblical
stylized
stance
auxiliary
##ass
compositions
gasped
puzzled
pier
immigrated
positions
hood
##hari
tajikistan
temperature
send
bonded
breuning
£3
owned
philosophers
mister
alcoholic
adventist
##寺
##onga
rihanna
averages
fjord
caught
classifications
determining
reckless
comrades
reinstated
actually
resource
stirring
hank
##タ
##nse
##uli
stafford
montenegro
sincerity
migration
##ophone
##木
##ough
schuster
nightmares
1771
anastasia
barbarian
##oto
ops
lynn
junk
##cel
fracture
ideological
data
disadvantaged
##eville
subtle
showcase
injection
albeit
persians
lessons
crimea
decreasing
tang
driving
##ifiers
mojo
internal
graves
pounded
themed
stalks
nick
invasion
stern
generated
##hl
crusader
restricting
greene
vanity
barony
fetal
##lane
coin
thereby
constructed
[unused14]
##gging
jed
##ros
typhoon
[unused275]
”
frequent
##eti
£
##lda
chrysler
sans
##cor
combustion
##マ
marquette
value
charging
emphasize
[unused653]
microscope
dramatically
calculated
hating
##rogen
papacy
##ᵉ
平
ho
lillian
fantastic
towering
selects
harmless
##樹
##lund
##craft
lau
##oge
traumatic
trustee
burnley
broad
ankles
afghan
vulture
negotiations
planted
many
ks
##kic
scorpion
ᵘ
contestants
angelica
##wana
artillery
como
double
calvert
##tangle
##bley
oclc
destined
##vitt
separating
grouped
ro
concerning
remixes
sync
hawthorne
##iaceae
airways
cocked
laurence
cart
##very
cushions
resigned
##我
##media
yu
influenza
##etic
campaigns
lou
tensions
champagne
outlook
[unused287]
shay
flags
##igraphy
##ক
bertha
borrowed
consequence
##英
infused
text
##pel
thrusts
massage
[unused693]
films
resorts
armory
employment
hermit
wore
howard
m2
bag
striped
##city
##kyu
tattoo
undo
ɕ
mig
masterpiece
called
dd
fork
clauses
commander
chief
leaves
##vale
seaman
##ticus
112
##fen
lana
synagogue
##tium
##cake
##mara
sousa
advertisements
##pour
pathogen
##ji
##張
[unused640]
ordered
planning
1964
ceremonial
patti
reuters
invited
scalp
fade
passive
epilogue
disk
##jali
237
extravagant
aim
[unused877]
##分
cordoba
racism
degraded
##ksha
fumble
counties
episcopal
1890s
marking
footballer
contacts
asian
##dom
##uter
oasis
peaking
warped
dowry
territorial
combined
##吉
apprentice
##च
warfare
repulsed
mc
damned
hazard
337
assumes
##shire
水
fried
wrestlemania
recession
pedal
huff
americans
assists
acheron
lowest
unicef
##rmed
luna
adulthood
lax
wat
##mum
tuesday
grabs
planet
tremble
›
would
##ze
jj
ʲ
librarian
jasper
grandfather
hot
nevada
topography
went
dominican
[unused710]
standardized
munchen
slips
##hs
##ously
ann
lucifer
edward
strokes
drunken
reviewed
sms
shakes
transport
polly
monastic
##ysis
caressing
##tology
##igan
different
##ol
strengthen
cats
frontiers
##iest
gallo
fate
pre
parent
morals
ramsay
##edd
##uven
furnace
##biotic
##tan
##cke
mackay
cipher
napoli
1829
receipts
ह
bash
sting
matt
sandals
##ack
石
isaac
princely
chain
clustered
minnie
wichita
cl
bulldog
tnt
components
explores
translating
226
[unused471]
##recht
theoretically
bane
##¶
い
pin
##rian
##ental
practitioner
##nic
trail
##я
mechanically
clube
[unused938]
##学
##rien
1605
##ncies
francesco
sprint
##cript
nuns
loading
##xia
blink
folded
recorder
1731
foremost
mongol
lost
し
involved
streak
shielded
##中
##forms
[unused13]
ruben
229
##jos
monasteries
starved
wilbur
snack
sawmill
teased
amazing
protectorate
pilot
barnard
paddington
sharon
##ai
garcia
floors
turin
manufactured
census
mildred
swedish
ss
danger
springer
[unused921]
shrimp
valuable
##yin
fails
##yal
ӏ
##arney
impaired
##hir
anchorage
arbor
lily
wonders
ashore
##ogy
endorsed
[unused342]
##amen
aluminium
rourke
rooftop
##ssi
tumors
ware
lunatic
##utable
footprints
deteriorated
orchards
ք
thermal
##lun
##nian
propaganda
scrolling
slaughter
international
visited
##ム
##herton
##are
prices
##谷
[unused785]
mirrored
travels
##quel
##oris
compete
##po
denver
opens
quebec
consulted
here
amber
##amo
supermarkets
ノ
tasting
##croft
hewitt
[unused572]
purple
##yd
sculpture
##ssa
rented
unesco
momentum
rot
shaken
correction
faster
sunrise
intervene
mats
fighting
slap
ottawa
ticket
translit
like
manny
##ो
engineers
eleanor
faced
##uso
witness
outlying
triggers
nrl
distraught
principal
hurrying
fitting
外
shanghai
kilometre
ball
##ल
oval
marvel
[unused606]
[unused335]
imperial
mukherjee
##zen
cup
##isha
inverse
holly
routed
##cans
smelled
bradley
abnormalities
##س
menon
childbirth
excitement
dolores
##sume
enslaved
##vina
bushes
med
limbs
heron
##rity
mourning
न
##mounted
##iente
ridden
##ounded
slowed
##ange
dazzling
chefs
tay
##ை
1845
substituted
##ว
##ա
ん
whimpered
ritchie
soap
##ł
##ه
[unused958]
##hala
abdomen
##ium
##б
grown
##brates
hurts
##shida
diversion
dfb
charms
tennessee
perry
##omba
resembling
acre
smashing
fingerprints
[unused314]
[unused626]
##tage
turtles
latitude
ruling
packages
##ulator
ale
knocks
[unused223]
##chison
hermann
beijing
eastward
ali
##cko
[unused68]
deception
imagination
sandwich
canberra
connect
##в
boulder
thereafter
accordance
alexandra
snowfall
darker
##hus
crowe
ok
parenting
##シ
animated
gunther
ag
cones
##）
purchasing
quan
##asia
mythology
passionate
ap
exempt
pulsing
thy
restrictive
probing
sharks
celebrities
正
system
##cultural
community
haste
regimental
craved
gilded
vega
believed
##ition
madhya
longitude
238
pry
##making
serge
projects
altar
emotion
hydroelectric
lambda
rossi
acting
loves
moaned
behaved
lesser
##高
crumbling
sunny
##az
definitely
ky
murders
sect
##dur
galleries
hal
fences
sockets
purcell
connolly
##oper
grenades
stresses
obscure
##hire
pierre
rna
noise
hepburn
##esian
mortal
1791
woods
stores
bored
further
ached
flame
640
regions
patiently
emmy
searches
reunited
##zily
prisons
skull
realizing
shorts
kamal
##tier
exquisite
iso
##rger
##obe
pamphlets
fisted
bo
thriving
supposed
chapels
前
##art
paralympics
personally
rounds
race
lateral
slovene
##oda
finger
ponds
elmer
program
southbound
windy
kv
rose
་
badger
##ße
oneself
47
##ieri
##"
suspicions
river
##real
memorials
อ
smoke
detroit
royalty
##yde
keystone
upbeat
1948
illuminating
disastrous
preached
1857
hanged
florian
##ister
benign
duke
langdon
tax
uniform
disappearing
truck
telecommunications
lds
spontaneously
##ito
immensely
centre
tentatively
龸
transform
##wr
##atal
excerpt
立
dismissal
eighth
queensland
gifts
kern
poets
attribute
ambitious
都
meetings
##ite
arbitration
theoretical
##aldo
structured
editorial
powered
vols
replace
##opped
maestro
[unused991]
t
##dr
replaced
coordinating
injuring
obsolete
istanbul
diva
waiter
foreword
authorship
gina
invite
number
uses
##hp
squeezing
agricultural
reception
brianna
dona
御
##dron
##itor
[unused802]
##sible
11th
[unused477]
vladimir
change
cooper
##burn
##│
helpless
controversies
υ
##oese
helena
moat
vineyard
pitchfork
linnaeus
linda
forensic
arrival
roommate
handful
smiles
serbia
albanian
##ף
##peed
[unused736]
raj
type
##ules
##ro
slope
1990s
haley
178
suspicious
peru
##islaus
deportivo
る
chooses
provincial
bernardino
resented
##coe
intimately
nationalism
##…
reg
239
##³
enclave
collect
roosevelt
##bay
##oys
neil
curling
bart
end
##ouin
remembering
##orn
tar
10th
cornelius
204
purposely
macarthur
retribution
##ness
##rgeon
constructing
shores
cypriot
243
leopold
padres
deity
pitches
hate
##aga
carnegie
[unused605]
[unused512]
henrietta
warmed
##38
monarchs
sprang
##lham
##ogical
##ross
sarcastically
slice
rescuing
aeronautical
chronology
##dlow
trembling
ŋ
gears
parramatta
##lian
fundraiser
vigorous
bangkok
outburst
rita
ghetto
count
##acion
loyal
spraying
lucky
childless
sublime
explored
johanna
everett
american
comparison
yours
noctuidae
algorithm
mcgill
mikhail
concacaf
mundane
uploaded
doing
emanuel
somerville
fisheries
usually
yard
privacy
##和
opted
compensated
wilton
juan
highlight
offs
adi
colorful
##ggy
[unused364]
##iface
chose
109
greenland
##connected
##pw
anton
doyle
##arus
文
[unused978]
fellows
ping
frigates
##uche
admission
1817
##ב
corrugated
claws
baked
ducks
lucien
try
sh
espionage
adventurer
doctors
medallion
糹
sure
smoothly
rao
limp
dwight
barking
subsequently
salary
##yce
##tructing
##ads
bluegrass
fools
delivered
broadway
protecting
##inging
curve
jogged
recess
gaps
##rson
135
[unused272]
rap
boundaries
prevents
finishing
daylight
kochi
vanuatu
rave
purchases
##40
confronted
[unused423]
gone
molten
##df
murphy
sava
[unused407]
altogether
accounted
persecuted
specimen
scrubbed
aaron
petite
inherit
[unused12]
##eding
dobson
countless
##ต
sensory
laurie
aug
townships
meyer
acted
likelihood
find
kg
alerted
despised
nw
forestry
blackout
##cate
##arian
posts
tidy
loving
alter
250
pretend
##ᅢ
rand
refuse
challenger
befriended
ava
seminary
##ete
α
stabilized
meath
valuation
##edes
##ذ
##ম
##trust
congenital
endurance
wagons
##ے
##rift
vernacular
museo
cuckoo
polls
[unused23]
weigh
feminism
exchanged
isla
carthage
sar
few
##weig
wo
blazers
bit
drought
broadcast
##kara
nets
##禾
biography
archangel
throbbing
##sei
acts
dorchester
##ast
##inton
##berry
problem
##com
##し
deputies
orbits
eggs
##mins
asserting
##⇒
drone
ъ
[unused24]
inquired
stroll
botswana
cr
tuning
tributary
fantasies
counterpart
poly
kyushu
##ie
lehigh
richest
neighbouring
美
##hedral
serra
dignity
##loh
navy
maggie
rates
bets
boxed
raining
curator
chord
##oted
licenses
weddings
eerie
cbs
##kali
anson
ᵖ
users
discovering
bassist
heal
mimi
##ridge
##raya
293
##ended
daughters
theory
##phs
##charged
harcourt
greyhound
unstable
deny
anymore
hokkaido
enforcing
mile
rouen
coined
##ungen
##ap
conferences
##culture
giggle
eddy
enjoyed
juno
##lls
timetable
till
waking
scarcely
bel
numbering
screened
bitter
amanda
glad
consulate
##ා
academia
##farlane
pump
clara
halo
salts
##lib
##arding
ɨ
emirates
ancestor
smile
prague
immaculate
ascended
##ska
griffiths
distinguished
ย
lowlands
dino
aristotle
warns
##loaded
stride
defining
1854
super
fabio
[unused599]
##dev
vienna
recently
##we
tesla
compares
lieu
kendrick
registered
colonization
leyte
crosses
reached
##ching
ago
212
achievements
huddersfield
##guchi
##ocytes
]
prominent
1757
society
investigate
trails
fir
fontaine
78
difficult
baha
firing
mclaughlin
joao
talent
##rney
creaked
loans
gibson
sphere
bass
##bia
parker
responsive
heraldic
finn
circles
ashley
[unused920]
jace
europe
bringing
60th
fresno
dodd
sacramento
passes
##dermott
winters
grafton
plans
##lette
ideals
economists
warning
##optera
##ful
nara
respectable
##gled
[unused171]
guard
stacked
adelaide
禾
ferrari
clade
spectator
filtering
kidnap
##դ
[unused825]
shares
##estra
##ович
297
shopping
##ষ
municipal
gritted
merchant
fordham
華
aero
dough
sec
[unused345]
ric
jimmy
danielle
mocking
##tucket
recommends
##ous
1802
kunst
##元
companion
ruins
karma
sympathetic
kat
[unused32]
synthesized
racer
##gged
framed
merton
intervention
##山
mediated
##ub
tenure
promenade
requests
cullen
##ignant
gabrielle
##orum
narrowing
##氷
globe
manufacturers
glazed
paid
fortifications
cathedral
creed
##late
##lk
##rone
ivory
recognizes
bounty
##vron
okinawa
stormed
sy
platinum
reassure
lined
[unused178]
relevance
shoving
ballot
erebidae
##hing
cites
writings
redeveloped
moose
770
drifted
##ades
remind
##fish
rejoined
regents
fertility
##•
т
pose
bournemouth
electorate
virtually
damages
inaccessible
vogel
internally
[unused661]
ʋ
shield
evaluate
[unused581]
experiences
apprenticeship
hurriedly
352
miranda
##rem
attendants
faye
may
ohio
linking
champions
wta
1957
his
tipperary
investigated
##tes
eruption
dismay
repetitive
middlesbrough
##rata
journalist
##eering
##lc
l
references
blossom
angelo
orb
##bert
disappointment
hidden
##oor
404
##how
ella
megan
qualify
phones
##kes
shoulder
directly
##cision
start
dharma
kicked
tendency
motorway
preschool
##nco
bread
confirmation
sash
sizable
##gui
15th
##chon
##ization
lal
1900
unix
marcia
[unused450]
bluff
pseudonym
percent
##cise
format
lordship
maj
armenians
inaugurated
##cher
representations
rat
[unused611]
outing
ち
1914
1848
rosa
casino
##arion
aid
noises
cairns
jesse
gust
[unused663]
##roved
drastic
seoul
atlantic
bolsheviks
yi
123
mitchell
remembered
celine
sur
gloucestershire
mls
naturalized
adjunct
easy
done
[unused148]
[unused621]
##bane
470
cambridgeshire
rebuilt
distributors
mike
scribe
pact
城
relying
233
##ม
pembroke
##istic
##nb
outlet
uttered
411
arjun
watford
mean
;
grandpa
34
denial
humanity
rafe
bison
garner
elaborate
ト
billionaire
covers
tally
difficulties
maintains
savoy
##dre
lush
jacobite
##uber
motion
billie
##inia
##天
tower
meteor
messina
mars
gogh
desires
grabbing
jubilee
po
[unused910]
heroism
empty
spat
quiz
vents
capturing
graduation
ל
alley
along
focal
statues
interviews
sarcasm
tara
tables
pilgrim
##₀
variant
gangster
scala
##iya
[unused321]
madeleine
##itative
##ly
##ape
##cave
dial
tunisia
radioactive
secured
facts
residences
##anne
1818
##hila
rouge
merge
refurbished
lovers
parades
sharma
agent
##ensburg
##ider
sections
##zan
[unused96]
deliberate
muted
levi
amazement
exception
poked
##а
comfortably
strengths
chromosomes
##aire
##bly
creative
piano
##ool
bothering
##♥
historians
democrats
landfill
##ssing
sadler
־
transports
biplane
##emia
##ty
hug
##jer
##‐
colleges
##秀
recognise
77
##eries
clause
desperation
##weather
exist
1806
##osomal
##ying
42
1721
voting
##fra
restaurants
[unused633]
ib
দ
##ragan
213
interviewing
roe
award
##antes
f1
bobbie
##etta
##metric
fought
prompt
mendoza
fright
founding
sell
battled
get
rainforest
##cards
thirst
connections
##and
##je
mystery
##pha
jan
[unused511]
redskins
spencer
##nitz
totals
woodward
hassan
72
barrel
females
cowboy
motivation
brink
originals
added
cn
scooted
kaplan
##ora
brutality
son
conversions
##ama
simulate
assistant
respectively
cooler
##mmy
trousers
[unused821]
##oton
italian
fucking
1727
##lag
latvia
[unused204]
##ique
blindly
circulation
socio
decided
74
[unused246]
##berto
fairfield
##inium
pyrenees
behalf
helped
##acio
functionality
strained
meek
service
##eses
ion
286
##ractive
onslaught
angles
winery
districts
dogs
clouds
##anal
prosecutor
##hes
##cute
acquisitions
mm
sculptor
spelling
##piece
1773
ন
##9th
antics
schultz
##ghan
culminated
crawl
listened
colonies
##erre
worker
[unused315]
your
cardiff
##eves
janeiro
buy
registrar
ₙ
negotiating
supplementary
jeremiah
nietzsche
kevin
economical
loyalty
marriott
pay
##veda
strips
mustered
merry
punjab
distinctions
##champ
seated
wrenched
##›
justice
tombstone
receptions
kato
hart
ward
##logie
sw
1872
brightened
songs
[unused839]
caitlin
inch
##cked
[unused543]
##章
lunged
gangs
##uil
intruder
coughed
pueblo
terrorism
louie
jase
##oft
dumont
jealousy
##ז
##ʐ
coupling
waste
winslow
quickly
##ovic
unification
flashed
stockton
noel
acquainted
##rga
[unused498]
script
sailor
##い
alexis
##qi
pointedly
projection
tsar
##zzling
##rwin
api
pieter
potsdam
ª
##market
romanized
mein
##chee
##m
[unused122]
ounce
bancroft
classify
beverly
##zon
##vna
words
enhancement
jasmine
sho
##ques
lewis
showers
medium
kinship
##yuan
godzilla
idols
kernel
attractive
scene
bis
essen
##dents
##sat
incumbent
rigged
##emy
sachs
dislike
##kur
rb
lyons
farrell
converse
prestigious
fencing
optimal
ladies
humiliated
delicately
estimates
transplant
utrecht
pianos
recovered
deliberately
circling
[unused403]
##ffie
hines
[unused466]
76
sl
volatile
cuts
bosnia
monitored
ink
##child
##tsu
honours
cared
900
idiots
315
emilio
##grass
##inen
dispatched
celia
centro
primitive
##olf
scheduled
sounds
sumner
弘
cd
dusseldorf
constructive
##oga
##press
antenna
sweat
burma
augmented
agriculture
attractions
observe
everyone
elbow
precinct
##del
c2
##ᄂ
sounding
molina
prick
[unused580]
##tet
kiev
yerevan
socialism
132
countered
fooled
vii
unbelievable
kyrgyzstan
ð
intro
##aro
##hesive
lectures
morality
smiley
concrete
##fied
reportedly
##ines
emmett
metz
homage
viz
ga
qur
hollis
kerman
sidney
##tara
balls
oils
maltese
eating
1900s
spreading
famously
mix
settling
mythological
founder
insulted
frenchman
●
giants
impressions
december
た
implication
narration
sly
nitrate
waited
genetics
[unused641]
peyton
##redo
0
[unused401]
grover
features
scholarly
sword
glider
##ـ
##ount
threaten
butler
##rating
filters
guaranteed
kosovo
ghosts
nanny
ranks
keenan
us
rbis
276
sphinx
1862
shortest
recovery
solids
documentation
##dner
relieve
kia
marissa
##kins
[unused772]
campos
protection
russell
chennai
judah
anniversary
supposedly
hotel
ᴮ
awake
##ches
absurd
zodiac
restrict
1912
gerais
nat
oldies
specimens
##do
voluntarily
vineyards
scarf
notification
chase
liga
actors
##ales
lyle
101
photograph
pending
harris
mirrors
cheshire
##isms
aston
muttered
bamboo
riley
protagonists
luciano
rule
rebecca
np
granada
##bered
manipulate
hyper
cards
imaging
##corp
ী
##ally
[unused90]
shipped
車
[unused949]
##bib
silesian
[unused100]
##場
ix
donnelly
《
##code
spatial
ira
omaha
sciences
belly
hilary
mcconnell
##thus
##zzle
expansive
₆
##cio
butcher
[unused402]
kinda
research
##skie
##rg
##י
cores
##dhar
ˣ
piloted
##_
1849
yarn
battleship
403
injured
2019
devin
vfl
archeological
disrepair
##թ
grab
majors
pee
flyers
##hering
resident
thick
mongolia
garfield
doo
terror
leagues
growls
knit
venue
crew
##phones
high
winds
hurry
explode
thirteen
chun
honest
[unused870]
##岡
grossed
globally
pauses
ruler
ab
##[
##空
example
gossip
guadalupe
##egan
reynolds
##sf
slovakia
residency
reservations
##8
##gne
422
workshops
illicit
cavaliers
apartments
長
stem
beau
[unused19]
soyuz
flush
##lver
ferrara
decade
two
warming
robots
beliefs
ages
##plication
skater
summon
##mbo
##uled
adler
pleasures
hopkins
rusty
[unused34]
meng
guggenheim
magnet
marty
roaring
elk
dominated
prosecution
owen
steering
betsy
sixteen
innovation
dismissed
crept
##horn
alec
dairy
faulkner
involving
sealing
720
##cot
u2
combine
instrumentalist
bricks
स
pieces
gunter
overland
phoebe
##ter
irvine
before
volga
lass
playhouse
innocent
elijah
want
[unused968]
##aly
angular
shri
bromley
miles
assignments
scaling
##utter
forgetting
##athi
guinness
fault
##nine
similarity
term
ᄆ
nobles
unease
yacht
kyiv
levels
thrive
##bad
fully
empathy
asean
decatur
civilians
travelling
##夏
overcoming
resembled
insisted
##vert
assure
1966
represented
announcing
staged
vomit
##los
houston
stood
52
##nc
negotiated
sarah
pow
generators
##acious
permitting
mule
##tar
albans
shipyard
northern
[unused429]
salad
floor
##eria
802
##asian
67
fielder
barrels
bases
casablanca
##ving
acid
neutron
nee
##≥
resemblance
carmine
replacements
##hc
convoys
documentaries
insurance
غ
##ste
silva
desert
ρ
susceptible
malley
wiltshire
cyclic
dealer
skirts
cord
##nka
iranian
tory
simulcast
embassy
##tative
codes
##外
##eto
emerged
waistband
spot
##gren
pew
##ati
serene
154
latest
[unused554]
hari
pathways
nagar
00pm
expectations
darkly
weakness
prelude
dawn
individually
campo
surroundings
hungarians
##chu
explorer
prologue
cunning
dayton
checking
##khar
bandit
##ures
oxford
owl
article
pitched
##nl
empirical
blackburn
unpublished
##vita
96
otago
cinderella
caretaker
##宀
been
##berries
##fur
ই
gabriel
emergency
##cd
##广
squadrons
finest
proposals
##‑
##ια
solomon
##ก
##force
##lford
reasoning
electronic
waits
##dio
##good
materialized
lifetime
lowry
looked
##sur
pajamas
##ergy
[unused155]
##el
lavish
saudi
6000
skin
brad
smack
##ق
secondary
##ean
constituency
167
##aks
narrated
bowler
##aq
##ena
##une
welcoming
renewed
reappeared
invaders
##illon
shocking
190
[unused886]
nickelodeon
##lins
lace
61
herd
新
dq
imagery
talking
1712
matched
bike
physicist
poultry
clinched
pack
##ρ
##pass
physiological
##長
[unused39]
announcement
manufacturer
exchequer
[unused340]
##building
##morphism
showdown
jefferson
nikolay
outpost
##⁺
gps
origins
greece
commuter
rogue
horsepower
##ult
qatar
##朝
omitted
missy
trumpet
##lese
parted
vinnie
benfica
lisa
ₗ
builders
kilograms
restricted
summary
##non
adhere
contain
straits
chloride
s
blackwell
spores
refusing
sebastian
##urt
empowered
##aling
[unused846]
##erina
##ffey
commission
observation
disturbance
consensus
##昭
popularly
plenty
riot
ט
marsden
##lvis
[unused927]
affect
burlington
commemorate
sm
columns
antigua
timothy
fool
##vine
alike
ح
り
enjoyable
morton
⁻
cold
itself
episodes
irs
£1
malik
レ
teens
imports
prince
horizons
buick
1739
##00
tab
##jic
parsons
##al
##bank
strain
tape
loire
cavity
imperative
##cis
moran
ins
gabby
cadets
teasing
widely
massey
##ons
mons
politics
wigan
compressed
fearless
##eus
inventor
##board
attention
mosque
##sar
beam
kills
fa
veto
##sta
insistent
##მ
[unused412]
(
cobalt
##g
re
##vill
transporting
mine
##anies
##ight
nowhere
##uez
sal
authenticity
softness
##ust
hollow
conversations
里
droplets
axel
routledge
observes
romani
bohemian
tags
sulfur
##kling
ceilings
sullivan
ν
un
[unused866]
leicester
##inger
dictatorship
remain
##lta
federal
walden
honorable
##raj
partly
cylindrical
frankish
[unused820]
rushes
##lice
dreams
understands
among
[unused500]
derbyshire
usable
1625
##vet
07
generate
farmer
locating
seizures
##growth
##pling
fragile
generation
libya
advertising
[unused937]
francesca
17
jenny
##guard
amos
potato
[unused279]
optimistic
##oping
commands
14
folds
τ
vine
##raphic
##●
amidst
cupping
[unused826]
promising
holiness
slapped
possessed
superb
nissan
attempting
tackled
ordeal
hoffmann
perished
dagger
מ
##lock
850
##aca
donnie
##utive
##entation
trillion
circulated
gigantic
constellation
[unused551]
nair
vested
05
acquaintance
mw
diffusion
cornerback
newborn
https
ee
individuals
##able
happy
willoughby
faith
joanne
locke
[unused538]
[unused280]
caress
redhead
preach
lame
rower
collided
figures
hamas
##ify
keel
flinders
##ბ
trevor
leftist
##tua
states
7
banks
temper
rocket
outdated
enable
norm
disbanded
cedric
picasso
₊
[unused676]
header
guo
nt
##ग
pantheon
kam
asylum
##il
habitat
miniature
##ddy
া
glacier
##tc
nashville
spirit
micah
##ttering
superfamily
canary
commissioned
164
switching
constantly
cot
jc
ک
rc
practices
secrets
##rden
273
##bund
clutch
stealing
坂
elizabeth
goodnight
decisive
boxers
acceptable
[unused983]
affiliation
eye
##tov
list
proportions
napoleonic
1780
amelie
initiative
theologian
sterile
##გ
waitress
##zers
naked
subdivisions
##so
janet
oceanic
consultation
viva
495
iowa
chaotic
stade
accidents
unharmed
techniques
chet
kristin
##ted
kb
dioceses
classic
grasslands
lone
[unused455]
cobb
tormented
森
amassed
although
nichols
september
topology
wellness
wielding
barrio
register
sugarcane
raion
martyr
##ris
jaipur
luggage
benson
bell
##zhi
radiation
pba
admit
empires
quiver
##₍
valleys
uss
##que
##ingly
servicemen
antiquity
##agne
batman
determination
##haw
bai
indies
1917
germain
stock
factual
valor
extras
tiny
index
##music
##∗
diffuse
blanc
##tary
macedonian
relevant
aiming
秀
crested
1784
drilling
brat
adults
##iman
institutes
similar
epstein
alone
convergence
1755
##wley
livestock
introduce
darcy
##chuk
##wed
contemporaries
distributions
error
279
commonwealth
##rton
shone
##erine
fatal
modifications
##unes
playfully
mcdowell
michelle
##ω
particularly
##dding
salvatore
朝
grinning
sausage
##tyle
tyler
disgusted
##arns
ld
gingerly
##rdon
##nai
gunners
impacted
chests
lviv
tibetan
daggers
##ennial
aims
reacts
baronetcy
##ello
emerson
elevators
basis
##itis
infinitely
upstate
raiders
binds
radial
macedonia
内
∧
terra
collaborative
rene
lands
valentine
##光
sued
caliphate
仁
##щ
##urai
[unused120]
condom
fish
commotion
##etti
62
[unused15]
simply
remotely
eighties
totaling
mandela
regal
stroking
ryu
jenkins
[unused38]
##ological
agile
[unused944]
##ј
##د
1958
somethin
budge
losses
kristina
iv
newtown
mania
completion
martinez
stating
##ts
bedrock
00
attacks
roger
##ilde
applicable
##fighting
ᵐ
1981
##ceptive
gallant
rotary
turk
ך
fresh
47th
gauge
semi
##ducted
##ˣ
##sibility
accomplishments
##ane
[unused469]
underwent
##rgy
[unused254]
[unused329]
##sl
間
playoffs
six
attendees
vocalists
gnome
hunters
mini
chicken
repeats
investigates
pinyin
ripple
agreement
##疒
bismarck
risking
actresses
##nto
##lter
preserve
##vary
hawk
sound
crazed
returning
faintly
304
ನ
conquer
roster
parapet
edict
hammered
glen
##ars
thriller
##lkirk
undeveloped
benin
headmaster
##wer
3rd
watershed
hesse
##∈
outlets
rolled
brings
awoke
domain
awkwardly
[unused694]
##lich
##wang
stale
calderon
architects
##rbin
lebanon
rotterdam
dinosaur
##erie
inverted
mere
drainage
everton
traffic
magdalena
easier
growled
edges
demo
chen
newsletter
beginnings
ruled
specifically
'
sox
##ndon
##graphy
spend
daring
##kota
vantage
availability
comes
juliette
terminals
companions
hearted
writ
##ores
[unused961]
brazilian
hair
victory
bid
outraged
[unused442]
travellers
ك
disability
commonplace
tides
##藤
chunk
[unused69]
##bana
##usions
shelves
##ares
##rka
citadel
attributed
lately
ragged
adorable
420
wince
skeleton
illusions
wessex
earrings
variety
prevention
badge
lengths
surprised
89
inspector
wouldn
starters
initiating
hungary
341
astoria
##arded
cub
mid
rode
stitch
coupe
##た
dwelling
orioles
kerr
[unused857]
##care
schubert
##ھ
##50
jian
##tto
russians
pathetic
withdrawal
loren
wives
[unused891]
disrupt
##rse
bala
417
nano
ʐ
hymns
troop
folder
negligence
##gible
##folia
ars
gurney
dilapidated
madagascar
##uke
highland
hauled
kits
barn
humanist
##ulsion
profits
fender
javelin
hat
running
34th
cactus
##{
##れ
munoz
explicitly
anxiety
##dling
##class
petals
morocco
linger
2010
manchester
buddy
reminiscent
##石
sofia
dali
schneider
yun
slovenian
romans
meal
beaux
##idae
planets
celebrate
crossings
mario
saturn
skilled
##rion
arm
##nge
vikings
irritation
caste
##xton
freyja
nobody
cadet
ق
afterward
##overs
[unused789]
abuses
ᴬ
##nor
##گ
comparative
carl
##kers
sculptors
concurrency
夫
lashes
filtered
hauling
##x
zhejiang
integer
willis
##stis
drawings
##uid
338
mustard
commended
##ʲ
##∨
reforming
border
lp
tradition
clockwise
bangs
humble
priest
primary
fictional
[unused322]
answered
sight
paints
##լ
gel
1815
[unused389]
displays
stew
stuck
##sti
customer
utterly
ル
kitchener
daddy
oral
##harat
rows
otherwise
manage
surfing
tobin
##atable
managing
##gingly
takeoff
anders
shakespeare
##ital
##erik
##oin
armed
99
tammy
swami
##cock
juliet
##ually
##rable
wastewater
unaffected
jp
treated
sui
lens
contemplating
carefully
ottomans
rhythms
ය
##lina
comedian
bavarian
lok
##suke
mick
speedway
persuade
terraces
allie
steve
thinks
##ents
teaser
utilities
grey
neo
պ
viscount
transatlantic
zen
scope
##yam
ominous
##₤
pea
##糹
res
interesting
##mond
forming
##yk
divert
papal
publications
astronauts
fines
##द
redemption
##wg
jules
litter
##ingham
м
tier
##bing
eliminating
frequencies
maori
worsened
##shah
emails
1779
needles
pensacola
investigative
##wyl
ナ
maintenance
participate
##abe
bare
jo
ظ
1500
##せ
contingent
##waite
convened
humid
vile
[unused198]
##ilised
nationality
neighborhood
orleans
23
∘
conscription
sees
technologies
shooter
estonia
game
reactor
producers
##ott
dialect
nyu
nikita
refusal
hamid
blackmail
mcdonnell
randall
##न
armoured
failures
rios
thank
ψ
[unused213]
ads
regulates
mercedes
district
cora
nicky
visas
1933
pipes
nickel
##rad
maynard
jonah
hardcore
papua
##hole
dar
paulo
meals
cessna
warships
##fare
##side
sisters
##lli
##bra
favorite
##sey
loud
climb
paintings
investing
##dry
mat
lilith
capsule
upbringing
##lma
##asi
extinction
##mis
coaster
hornets
environmentally
##torm
##rda
screaming
crack
avalon
21
prose
lest
##vs
desired
displeasure
mortimer
industry
zoning
[unused569]
tempting
moved
1997
[unused502]
ワ
approx
legitimacy
milk
##mg
outlined
##ʷ
lounge
defined
eagles
newcomer
1919
triumphant
potential
mines
crystals
θ
##io
cantonese
hearts
raw
kyoto
businessman
shouts
swallowed
formidable
swimmers
ak
peace
##！
symbol
puebla
chargers
scuba
forcibly
trauma
incorporation
[unused212]
landau
render
cello
##comb
##orestation
38th
honorary
##sal
vince
##mber
york
serving
gaunt
tai
1743
##scu
##gonal
operate
##wei
[unused67]
amnesia
madeira
checked
κ
penguin
戸
orders
edouard
surreal
khalid
crush
flag
clung
greeks
using
##uf
registration
class
crisis
##xie
bolivar
forcefully
peng
lsu
poisoned
izzy
##icle
virtues
medical
hospitals
instances
bas
ridge
ত
abusive
forster
councillors
hard
thumped
safeguard
supper
theft
appearances
cnn
##ising
[unused113]
disqualified
klaus
##joy
##vey
traverse
1866
##rage
##mani
##မ
cutter
eruptions
dwell
ш
willow
virtue
archers
strictly
1667
dog
alloys
shutting
deciduous
dispatch
crows
##gus
[unused116]
inverness
conform
propelled
michele
grandmaster
preserved
##glass
voyage
trenton
labyrinth
descendant
##ivist
##rwood
nominated
catholic
lobbied
vet
spill
nobleman
nasty
await
[unused186]
pound
shapiro
litres
##amine
simpson
helix
reciprocal
##lova
completed
modes
essential
##vid
##sos
resist
erratic
thoughts
arriving
1745
[unused972]
obsidian
follows
angus
recruiting
nico
tko
disdain
getting
wade
menu
##man
kyle
disliked
teach
earthly
swirling
broughton
everyday
[unused863]
ceylon
employ
mohamed
hang
##尚
##†
erection
stokes
complaints
projected
##56
co₂
##use
hunter
jalan
judgments
patrick
survivor
whitman
uefa
receptors
virgil
unhappy
carpathian
addiction
muhammad
##ᵖ
##grave
humorous
freelance
rohan
captains
##olic
intimidating
teachers
ヘ
anthony
renovation
fibre
indirectly
seneca
equals
listing
griffith
##jar
widow
carey
##dson
boxes
##gated
##lat
derrick
villas
complexity
##ology
##cam
##lab
chicks
barely
motorcycles
expenses
bose
improve
suez
behavioral
eucalyptus
ज
##felt
immature
winston
welcomed
overcame
tribute
##hammer
starred
manhattan
1978
dev
curtain
spartans
postmaster
nagoya
anticipation
##ε
saloon
##∞
bran
bei
noir
snarled
wanting
##nction
displayed
acidic
leans
gujarat
denominations
marry
danny
##bury
##ث
climbs
advocating
##rians
reelected
ultrasound
ud
wellesley
litigation
low
claus
lane
shaman
prescription
marriages
attracting
gm
volcano
##hesion
scenarios
hilbert
revolutionary
geo
shipments
cedar
##formed
chances
dragging
body
##zing
courageous
don
mara
land
craig
convinces
shropshire
instability
##－
shine
surge
slayer
[unused984]
invention
racks
fable
penetrate
paragraph
newman
counseling
rudder
sentence
##bular
forwards
crafts
serpent
fremantle
##ե
bisexual
1907
[unused689]
fontana
ability
thugs
sale
bubble
alpine
chaplain
thirds
##hiro
footsteps
松
##ntly
disagreement
maureen
##ლ
likened
ignited
fulton
nailed
##keeping
cardiovascular
escape
legislature
perth
fortunes
16th
irrational
doomed
_
substantive
importantly
cantata
colin
suite
worthy
ascending
haired
domains
shire
##achi
reconcile
booker
executive
baptist
abel
##gf
weathered
attendant
knesset
##chus
grotesque
costs
robin
pearl
fees
##と
town
shorter
shadow
toxin
flooded
stil
[unused588]
##hn
habsburg
##仁
##t
ratios
ai
##balance
attend
limerick
242
##ingen
resolution
francs
##«
highlighting
##श
も
arlington
ci
settlements
soy
##bourg
heck
sven
equatorial
downstream
remorse
##ld
nordic
update
189
zeppelin
hissing
bela
##khand
##rik
sacked
monsoon
ニ
##॥
portion
##ब
##our
secretly
frustrating
ヒ
warsaw
poetry
innovative
favorable
##around
##sha
participated
1723
}
jeremy
delhi
rebound
dripped
##ェ
dialects
clusters
drivers
patrice
apparently
stanton
stoke
preseason
##gues
##owing
schumann
experimental
1868
э
betrayal
marley
propose
##ched
ং
goddamn
##ɕ
biased
evidence
tchaikovsky
##ns
communal
hint
documented
formation
march
##龍
hbo
[unused360]
contemporary
rumble
straining
ears
##《
substrates
stark
ist
tendencies
quran
frowned
suggested
migratory
##xing
##iate
##scia
botanic
sponge
arabia
decree
helium
च
breaker
boar
voter
ensured
##yan
candidate
central
confiscated
1916
##zquez
vargas
limited
friendship
[unused184]
##static
shouldered
gutierrez
corona
coordinates
pouch
claimed
escaped
distributor
##bai
##holder
bertie
hardest
imposed
bacterium
##shi
[unused575]
##duction
explanation
##uck
子
##ih
##gration
chuckle
axle
##ats
##zin
spitting
##;
[unused565]
distortion
makers
appalled
piles
laughing
ə
boom
indoors
remarkable
##zow
astor
rally
turkish
telescope
auguste
supervising
collaborator
aerial
mcnamara
##ril
comics
ce
taekwondo
shirts
headlines
tribune
##ja
clips
shot
costumes
paralympic
perform
##nde
shovel
accomplish
curves
percival
standard
accommodation
supervisory
##esses
depends
ड
bytes
エ
masters
mainstream
places
zac
vic
argue
figure
ample
angered
[unused777]
##yah
gospel
##te
petitions
##litz
casey
deeply
##grapher
1880
fleeting
gift
##ricted
dune
flemish
shrine
reese
saharan
mumbai
alleged
specified
##fk
nagasaki
##^
dorothy
newscasts
indie
aarhus
##rta
sinai
##rti
painter
haynes
parameter
grenade
##reate
##nberg
mps
inactivated
swap
engineered
##bina
##lent
quarrel
residential
provided
specialising
refreshing
depending
ursula
tree
##fest
hamish
nationalist
landings
##inae
arrivals
chris
suppress
lettering
storms
luzon
dickson
perched
corresponded
580
misty
##rates
##12
##onzo
##mobile
##lide
##rize
cum
clark
towards
marjorie
##セ
clothes
sold
difference
kensington
skopje
stumbled
span
nights
ventures
critical
monitor
₤
regiment
telecom
add
closed
##grating
completing
lack
expressed
claw
overhead
regrets
telenovela
growth
yorker
cultural
rr
[unused267]
gut
sacks
fancy
lavender
drying
zheng
observed
meade
nebraska
invading
union
cloak
olympiad
ら
hub
##lena
nr
humour
##ths
talmud
did
supremacy
snort
imprint
fined
correlation
dunes
cyrus
localized
procedural
philanthropic
manufacturing
thought
melbourne
restriction
powerplant
groaned
##რ
170
harp
stairs
pamphlet
applied
gee
##dled
[unused295]
##liga
returns
respondents
inflated
integers
axial
kiran
formations
alleviate
seven
surgeons
girl
meets
substantially
antoinette
ก
strait
59
charismatic
harrow
greenfield
beverley
packaging
auburn
##lbert
armored
##fine
bathed
千
furiously
hell
gracie
insect
ђ
eta
mighty
silas
brett
husbands
inner
christian
arranger
unavailable
##ic
recalled
attached
spines
scandal
storyline
##tion
[unused160]
italy
269
tandem
peeking
collisions
##⟨
directory
##mony
buses
consisted
versailles
leaning
khalifa
staying
##kowski
[unused770]
##n
##ried
colliery
werner
losing
trouble
##ნ
sino
expressway
sums
futile
##dock
rosewood
sinister
[unused53]
##ented
portsmouth
[unused940]
principle
substantial
##aco
##ogo
##hyl
[unused496]
mar
bullock
governments
mb
bridges
2a
remodeled
milwaukee
bridge
յ
hanover
skier
incense
suitcase
102
##ru
codex
pistons
##ces
##missive
roundabout
elliot
slept
emancipation
appeals
##ort
sang
##gna
##eke
milky
lamps
mice
writers
strolled
quantity
##bner
和
weave
tuba
lineup
##ial
reformer
leipzig
wait
razor
##anza
artistic
highways
##fl
lesbian
adobe
uncommon
coldly
rutland
racing
そ
ranger
taunting
401
148
sniff
espn
lennox
lev
##lance
##nished
afrikaans
electron
monster
hangar
##ᵢ
colleagues
##shing
inheritance
hers
73
reclaim
[unused851]
underside
##osta
aye
contexts
holy
emery
336
phonetic
slavery
##ncia
ito
mirza
##fast
##hak
scottish
ace
##tam
remy
##enstein
selecting
jays
##鈴
hampson
ᄀ
unions
excitedly
weaker
merrill
cicero
mcbride
recapture
blending
yield
rover
vest
sketches
##tzer
fumbled
maple
nz
shake
##≤
hairs
##like
grammy
bestowed
masjid
avoidance
fortunately
essays
stomped
[unused865]
crafted
rendezvous
livery
##ان
nato
fishing
##ellant
pan
accuracy
cracking
navigator
terminus
viola
##vc
disapproval
permits
mo
oregon
denied
knee
南
stealth
adolescence
doubtful
grassroots
torque
henrik
inversion
ave
temperament
bulletin
grill
mastering
concession
##vat
##dp
360
mono
marius
##宿
##tarian
nh
politically
aragon
##kim
forearm
##lu
initial
##ent
tending
hopeless
[unused474]
1661
annex
malaga
##meister
@
daniela
trailed
johns
1861
impetus
pune
plots
##ggle
behave
panda
suites
##ues
flexed
opined
accepts
fed
bubbles
regatta
ineffective
as
identification
##screen
##sser
delta
##tting
competence
##hul
aquatic
transparency
[unused349]
distillery
allowance
petrol
##ford
星
sings
aggravated
##cend
carved
barnett
[unused617]
style
years
penal
grimly
##վ
namely
deaths
##tel
rev
kendra
where
geoff
friendly
crocodile
31
##ₒ
fossil
##link
##krishna
bathurst
associate
leaking
##な
タ
billings
##bari
cerebral
tested
drain
panthers
[unused513]
initiatives
[unused924]
berger
marian
chieftain
progressive
challenges
gothenburg
frequented
##υ
modeled
hail
lc
##eta
##bt
scripture
##ig
##李
idol
vinegar
##cki
##line
belize
midtown
biking
internationale
##thic
crank
devised
[unused562]
405
avenue
rational
##ɣ
collaborations
penetration
winthrop
draught
blinds
glance
formerly
や
hides
sax
last
##af
lucas
eurasian
##mac
mirror
enduring
plume
mankind
killed
##pio
faust
culminating
##☉
ku
foster
nancy
॥
astros
sectors
harder
exchange
happening
mesh
paint
##ny
##rak
hampton
32
spaced
##kura
##ে
##ւ
##bah
bautista
afternoon
combinations
move
commons
##ecure
yanked
91
shipping
pharmacy
##ivity
##load
hooded
##lization
economically
bangladesh
cathy
likely
chased
louder
hinduism
versus
##ago
arguing
##old
##fields
contributes
everest
##rang
##c
gotta
sophomore
pondered
screamed
mattress
moody
[unused692]
patel
lyrics
roles
smoky
##য
transient
obstacle
damage
356
##bek
swear
##uca
horsemen
decide
factions
[unused892]
sinking
tips
steven
johor
kenyan
##ifolia
wills
caves
##ting
solving
chords
spread
葉
##tori
abu
hoc
faction
##laze
directs
profitable
[unused941]
outcome
##out
##lington
consequently
yoo
##laus
apes
cups
jung
明
johansson
directorate
##ets
samba
##inda
chick
zack
waiting
bethel
##nu
packing
belgrade
reaper
##bbs
teenager
⊆
archaeologist
snapped
heat
target
syria
derek
peninsular
1804
cursed
##nius
collection
viaduct
postseason
ecclesiastical
##lifting
##ronia
roadside
recounted
stranded
stepped
clarify
##ʊ
[unused61]
demonstrate
professional
slipping
₎
plaintiff
request
plymouth
##rac
housing
ambiguous
andrei
default
##pala
insurrection
judged
##itive
drummond
laird
287
##rell
dies
##qing
denote
austin
discipline
dyed
##pace
[unused515]
##planes
sheltered
waved
snarl
1905
include
antennae
aboard
pedestrian
##zie
penalty
elisabeth
introduced
wink
milton
unidentified
hiv
##vating
discourse
##ibly
panic
##orio
##gard
palestinians
hammering
18th
novgorod
yves
knox
root
##ddle
2
mit
##forth
fi
friends
locate
calcium
operatic
plaza
videos
jamaican
accommodated
beaten
##rified
disrupted
albrecht
##unciation
connector
glasses
[unused652]
homeless
cartoonist
[unused989]
##sian
thinkers
bones
protocol
principally
##sea
1713
soldier
eton
750
venture
engine
hierarchical
direction
resisted
comedies
reilly
detention
decent
fl
easton
թ
ioc
join
mp3
dying
stockholm
baseball
prey
tobias
involve
receptionist
efficient
##ural
nationwide
cancers
lyon
vp
ascension
selling
า
marshes
anatomical
pressing
ை
arrows
##rove
gamble
rematch
confidently
fares
honour
slower
dhaka
urine
blanco
mil
minh
alfa
marco
suspiciously
networks
gaped
grace
robes
##uru
challenging
nonfiction
water
vague
##oc
dynamic
yin
safer
tricks
dinah
##リ
deprived
[unused94]
ellington
transition
##b
helen
##ath
##anto
bounded
competition
brushing
seriousness
cavalier
manifesto
disposal
interred
southeastern
potentially
governors
##ry
38
iced
[unused417]
sonic
road
##uation
tito
gardiner
casper
westminster
capcom
swan
treaties
joey
expands
##idad
therapeutic
##kis
intelligence
marcelo
weaver
sufficient
fair
pomerania
siena
bryce
##yeh
conference
375
formats
1830
intervals
preceding
tristan
₄
albanians
[unused397]
##gles
waterway
severe
entertainment
seminole
across
ban
##eman
patsy
posing
orchestra
macro
laden
##version
extends
##ₗ
##asurable
##eme
herself
shiva
acoustic
ʼ
blackened
piracy
vo
cake
castro
a2
##vial
sympathy
##age
sharply
describing
accumulation
sometime
segments
##rl
naturally
nanjing
canadian
##ulate
overview
nell
brigham
julien
bomber
目
##mack
suggests
worked
drugged
nouvelle
trance
[unused774]
##irs
enables
lindsay
laced
segment
flight
ph
##ois
elects
##imum
faux
##aged
##puri
esther
preference
amiga
dumb
safe
##owe
gt
decoration
raises
earliest
1932
##let
imagined
dallas
##mus
interstate
reflect
punched
develops
tea
268
£100
##tis
royals
licking
##ע
扌
listeners
ı
barracks
trafford
focus
bend
classification
when
adept
##zer
suspicion
presence
##pm
##jee
ty
senegal
##gly
streamlined
partnership
alcohol
circled
arrived
266
civilian
renault
mapping
pitted
agree
##ocation
##ा
##dial
[unused22]
mobile
cryptic
tenderly
them
anticipated
musically
sufficiently
boat
workers
islamic
sidewalks
sanctions
ش
traps
pillars
##უ
tia
communication
1850s
##mount
jonathan
basins
tufts
rotten
##tore
##ར
parking
pauline
pitch
##xon
perimeter
coveted
misunderstood
二
commissions
haas
friars
##ל
hurt
eugen
[unused248]
boiler
aside
simplicity
[unused299]
paces
[unused703]
family
##bee
tigers
stimuli
trusting
zip
tram
saigon
耳
balancing
consider
opposed
created
##rcus
tate
circumstance
resistant
[unused326]
accident
protestant
everywhere
##hra
existence
framework
149
東
verses
beth
kilkenny
grew
vulnerable
selangor
wiping
##uchi
##kari
paradise
ras
competitions
interpreter
muse
vacated
stripped
[unused446]
scaled
##nall
telling
##drive
provoked
ₛ
flowers
##tlan
limestone
readiness
##par
[unused157]
##ges
worst
bob
dams
[unused767]
##yya
sore
incidence
dynamics
budgets
shoot
flank
shop
コ
glittering
199
jared
compliance
relaxed
sinks
wider
tunic
pressed
##政
tolerance
##court
eaton
transylvania
reluctantly
ferocious
{
barley
ツ
mention
catcher
menace
1935
##ffled
accession
speakers
maccabi
##hid
apocalyptic
gerard
personality
1672
堂
tung
##lateral
##オ
peat
##hart
facilitated
optic
adorned
suspect
zhou
##log
monuments
glamorgan
sucking
toy
##nell
teammates
##grants
##hli
sid
supportive
intersection
whereas
shortstop
v6
famine
dissent
[unused559]
malacca
brushed
beetle
##sters
taxes
sustaining
measurement
wwe
tuck
burke
dexter
betty
lulu
even
resolving
##jas
##史
nottinghamshire
scrape
tensed
blonde
level
tata
benny
kazan
gaines
technical
##rricular
leafs
bonding
##aghan
liner
congo
banged
##yard
thornton
flick
nest
singular
orthogonal
earthquakes
screening
##raf
decca
adjacent
##shin
[unused637]
1670
woody
hannah
tariffs
apparatus
cues
hunan
drafting
distraction
blake
##ditional
types
patty
atmospheric
uncertain
uniquely
observers
arrow
computation
forehead
##ии
rhodesia
µ
adolescent
arsenic
##cola
sails
##rek
##tp
##ss
replaces
educating
ʸ
面
finland
##ajan
vietnamese
vicar
##arty
swallows
illinois
[unused332]
bethlehem
tearing
boris
glacial
col
##த
yankee
requires
samantha
yuki
abyss
shan
filled
timely
##wala
breton
antibiotics
slightly
hybrid
weapons
plurality
talented
neutral
##pad
dots
stared
beirut
dashboard
ta
alexandria
refuses
quality
##llet
成
sweetie
awareness
putnam
##nsis
incidents
shawn
iata
millennia
reapers
communist
sigma
catholics
remainder
neville
rome
[unused146]
1702
suspend
nouveau
disposed
##ett
##ˈ
initials
celeste
mayhem
groups
max
##atter
synth
awarded
##iting
governance
disturbed
gross
,
remedy
saturdays
answers
eccentric
sheen
calhoun
[unused778]
##pressed
[unused276]
dancer
##.
[unused739]
herman
statute
‚
funky
escalated
judges
institutional
premio
embodied
##nant
sanchez
bounce
colbert
palms
##nded
persecution
washed
defenders
breaks
communicating
obligatory
##ー
marijuana
hooves
sweetly
huh
clap
depicted
324
##bol
musicians
pulitzer
wilde
gabe
accelerate
##osity
adriatic
melody
##trick
andre
##ification
##太
##oa
[unused734]
sweetness
morphology
blanche
##onal
##ands
##土
stimulation
andy
##hic
surgery
incurred
##lers
1899
alliances
gideon
##het
debate
##chang
guido
concerts
rigid
##auer
hundred
capitalist
lonely
proper
forbidden
age
retired
stepping
salford
cottages
adrian
serviced
rotate
credits
households
[unused240]
1623
engages
angeles
œ
flip
unicode
neighbourhood
##iens
blazing
subunit
[unused77]
maze
improving
##bula
vendors
##eh
hacking
quentin
同
renaissance
spokesperson
towels
1833
atomic
##dot
##区
ellie
layout
##ssee
lydia
product
[unused809]
regression
گ
clue
fact
wrinkled
aroma
[unused123]
cattle
jill
pakistan
twisting
counted
psi
##ryl
operative
cortex
graduated
張
flavor
spoil
ray
1867
disease
##at
##צ
klein
[unused196]
##uga
singleton
infected
warship
wrongly
fielding
[unused45]
mcgregor
doll
gia
tell
西
inference
grocery
ᶠ
##合
dinners
##the
protagonist
##tera
brightness
พ
gilbert
eyelashes
yes
compatible
disagreed
ハ
##cat
##lei
coats
icy
embarrassment
lifting
choices
vancouver
protein
tori
[unused71]
organizing
invented
purported
fame
platt
insects
offset
paige
[unused796]
##power
##ella
bolivian
occupation
1752
bowled
ी
soul
likes
艹
46
underwater
##hab
##light
electrification
##良
##por
residual
##row
kiara
##ร
immersed
##er
parallels
##lou
dei
midfield
##ன
intrinsic
envelope
student
wishing
1825
apparent
thinking
launching
cease
rocker
license
intend
stream
selections
filling
boo
pup
##aid
kidd
cleavage
proton
##yse
##osis
fridays
froze
artifacts
reality
spurred
academie
##her
##hed
miracle
fr
pursuit
れ
dewey
##ater
##arth
ク
bobbed
dear
warriors
##rom
heavens
##ds
traveler
acres
cat
[unused482]
twelve
witnesses
couple
release
##־
confessions
decreased
philosophical
rapper
##ense
fall
relocation
abdul
laguna
property
hats
beef
justified
162
harvest
maturity
bobo
waivers
100
##ram
12
inscriptions
##nce
##fu
rammed
feud
captures
[unused898]
gunpowder
##tch
handed
∨
eighteen
important
bananas
##cott
##dles
eastman
##∪
warehouse
tent
qualification
deciding
researches
female
valiant
##ei
slippery
cooking
exits
tossing
##ility
∩
albania
cheat
##₆
loosen
usd
##chemical
[unused419]
sevilla
egan
consultant
amnesty
##部
seasons
hid
ejected
shops
##eased
##ache
##士
candles
oil
mongolian
mata
301
##7th
orient
feathers
bumps
yellowstone
##pants
federer
web
back
##vani
seahawks
isn
stopped
##€
cement
promotions
stephane
ferrer
tunes
landing
##bala
irene
shepherd
##iri
assignment
rearview
spawned
##pro
parting
agra
վ
slowing
##nal
designers
penitentiary
essex
ே
legacy
vibe
expand
priorities
glimpse
1730
gave
forbid
verdict
##hum
##ologies
paced
committed
##″
jets
housekeeper
##gon
##less
midsummer
path
downloads
##icz
rufus
##yad
biomedical
[unused593]
dark
pisa
gathers
linguist
ferdinand
##made
[unused194]
cent
define
bao
lending
senior
contrary
##gor
₇
##hips
undone
discovered
numerical
valerie
##oped
##rito
legally
ringo
nightly
540
withdrawn
##yama
bruce
prefers
##⁵
fife
adoption
[unused147]
##bant
showcases
myspace
##)
liaison
##minated
##nare
suddenly
youths
roma
##ain
experience
converge
ports
vidal
commodore
##ards
nicknamed
mutations
purposes
jackets
loyola
tile
ko
wilson
##enting
doom
norris
##win
airborne
baking
cp
dreamer
darkening
nightingale
vie
fei
mahmud
phoenix
##cic
alvin
竹
₹
more
##athan
molecular
##&
gen
zimmerman
rooney
£5
implement
[unused936]
minor
grapes
[unused964]
wrestling
##ten
maxim
##ज
楊
##sier
hypothetical
##valent
1940s
lanterns
encompassed
malaysia
##kor
[unused712]
wilmington
axe
autonomy
maxwell
overlapping
genoa
1860s
evacuate
much
1881
saying
##twined
thwarted
boston
[unused850]
triumph
rear
mcmillan
pinch
[unused9]
nebula
[unused522]
sneakers
[unused962]
profoundly
pasture
kala
##ista
[unused631]
209
implementation
updates
unmistakable
570
holders
criticism
1918
defective
[unused74]
excerpts
belgium
660
##mir
##elle
thigh
ridges
kathryn
620
ʾ
##hg
##wheel
##gong
delegates
downed
desperately
terms
autobiographical
scanning
theodore
bony
bergman
avail
defines
renamed
complain
handling
brains
evelyn
##wice
ronin
##eller
brilliant
[unused533]
princes
toned
fred
##ashi
[unused112]
surprises
influence
detect
schooner
wally
r
practically
links
##lan
robber
tourists
forbes
pcs
##onic
bruised
##uo
##lings
booths
wolf
fiddle
comet
##ı
interpretations
compilation
josh
meat
provost
##uh
beats
##ø
manchu
viable
ivo
##ᵃ
utopia
lab
considerable
bombs
violinist
persons
koln
wwf
point
[unused675]
styling
scars
ratings
tome
delivers
roads
##urg
##64
stamped
catering
prototype
ruined
prophets
uncovered
vita
##di
assassinate
##ond
a
13th
unwanted
marne
multi
modelled
flees
[unused582]
impatient
damian
moore
confess
##oki
brit
##position
scales
spine
spirited
shin
##bau
hai
chemistry
markedly
stretching
quilt
swallow
##wari
##ま
joseph
foyer
advocated
investigator
tossed
29th
silently
ste
spice
330
##tma
burgess
staggered
steele
muttering
rails
wyoming
county
contribute
purse
##gizing
##ggio
merging
und
marge
killing
aisles
bulbs
corbett
##hy
jaya
bu
##wire
syndrome
transcription
paisley
montgomery
intently
ᄋ
##ava
recorded
##king
##sund
commodities
₀
championship
lil
balthazar
mcintosh
keyboardist
monmouth
##owski
behaviors
in
xiv
sunlight
[unused124]
gracefully
sweep
miniatures
angry
##ส
rooster
installment
hua
made
tha
form
pip
byu
[unused988]
475
migrated
slicing
organizations
##min
therapy
##☆
http
legislator
[unused245]
norton
brisbane
amphibious
harold
anchors
failed
56th
fe
##tze
chalk
environment
spectral
offense
intensive
##բ
quarries
backlash
spies
julius
irving
##dc
fireworks
学
##aja
##bery
spacecraft
karim
##itan
glared
promoted
yesterday
til
hermes
[unused80]
ಾ
stubborn
enchanted
piper
ns
[unused352]
physics
[unused10]
liege
film
1839
ich
elf
increasing
##hner
organisms
morning
packers
##boards
##eded
seville
み
49
advantage
arid
nostalgia
raid
cyprus
convention
successful
##ocene
hoped
bidding
[unused153]
292
arbitrary
##arium
crane
duval
1748
##ings
##orescence
cds
pissed
selector
##86
##miya
rookie
benedict
xander
marketing
merlin
##oku
gate
cavendish
##nd
##sil
scenario
attributes
publication
supermarket
22
281
leonardo
##isches
sean
enthusiastically
male
castile
##fight
drenched
notice
process
loch
walker
1793
sedimentary
runs
endowment
tales
veins
meeting
adapting
swimming
jewels
toxic
rattle
defunct
dusty
ordinance
##air
##um
treatments
rv
goddard
##ctuated
engraved
goalkeeper
appreciation
prone
unless
##eux
##tly
maru
annapolis
##ل
elle
##mers
clancy
chuck
takeover
##kala
1820
ratification
##phile
titular
[unused890]
beans
sierra
tend
shareholder
socialists
incentives
filmmaking
guineas
classed
troupe
shrugs
##omy
bosses
distract
dare
ᵢ
##nin
sparkled
boca
[unused915]
debts
bal
silesia
tainted
jens
strategy
##tu
weapon
##mable
verify
awakening
[unused874]
##ini
lagos
[unused501]
corrections
hanson
1819
fulfill
ensued
bruise
wow
##thi
mischievous
parkway
handler
apollo
guiana
derivatives
foreign
george
省
renewable
compassionate
##ga
##oxide
classmate
zeke
ethiopia
warmth
sigismund
largest
stephenson
##uno
criticizing
zebra
biographer
vanishing
##16
lars
л
##青
saints
viewpoint
cv
pseudo
katie
accurate
##ggles
agatha
groaning
hd
limb
weston
olsen
traveller
lobes
diplomatic
strategic
scrap
associates
civilization
goodwin
cpi
complementary
spoiled
sculpted
brutally
##ի
monsieur
proposes
eternal
legendary
dropping
##kker
singapore
ت
##ivate
[unused111]
proceed
piercing
analogue
##ס
heated
bach
muster
[unused791]
nonsense
darling
viktor
accusations
##kian
linked
[unused110]
tongue
happens
dedicated
pretoria
##lace
spices
rocking
sponsor
##chy
coincided
huddled
gustave
magistrates
##dar
，
frazier
wandering
hadn
##clave
colombo
##life
quinlan
##race
gap
##lton
easily
alderman
jagger
stab
vivo
outsider
ac
las
cakes
1665
blank
destroyers
keyboards
kali
[unused881]
bandits
[unused183]
buyers
##giving
trembled
genius
unofficial
areas
##oon
barked
trident
cope
cautious
##sse
reckon
##oslav
tents
disturbances
207
##ᆫ
munich
51
arcade
geek
ye
malawi
waldo
##手
##iser
roller
nod
dynamo
connectivity
##iform
spaniards
details
blasted
kobayashi
funk
krishna
shafts
##born
better
stems
##estinal
chopped
part
employees
tests
obligation
vicinity
##ল
spacious
[unused82]
##ӏ
previous
hindu
wah
ᆼ
mor
mari
pierced
exploited
basement
confidence
ionic
tucking
##wen
ᵏ
extensively
rescue
[unused738]
ocean
gastropod
restrained
sticks
##holders
worn
##iso
hawthorn
vamps
##iable
orphanage
##eb
twisted
cognitive
holdings
##ii
emil
calmed
五
clarity
cassidy
popped
sicily
mas
kiel
##ⁿ
fits
imprisoned
rebuilding
jewel
dubai
1000
comte
##gy
1865
claims
marylebone
##van
obscene
catastrophe
youngest
##leg
[unused462]
amendments
regulator
somali
certification
##iver
burial
slump
dinosaurs
code
##rries
ب
pull
##mic
tech
##fin
lasers
bulgarian
sundance
desktop
neurological
peers
inhabited
brady
pools
granting
##ady
pavel
armenian
25th
malone
ħ
lie
response
martini
passing
##ht
flavors
##elled
juice
[unused43]
##lla
must
lynch
thief
wr
fan
inherently
percussion
publish
britten
cigarette
boroughs
doubted
sprinter
hearst
circular
##gno
hazardous
nguyen
[unused725]
chuckled
1659
111
mph
spun
junta
sai
[unused622]
sorts
##ظ
precious
##ius
trickle
[unused750]
adapted
##esa
র
##cker
message
snatch
magnate
##dham
renaming
classrooms
prasad
surpassed
croft
conserved
nrhp
jai
tina
theo
1821
[unused887]
oldham
extract
populated
goth
awarding
##nted
kade
isolate
fifteenth
quintet
inspecting
1831
##hay
virginity
birthday
yearly
og
chow
ease
enabling
loads
boise
reeves
yeah
abandoning
##ites
##rogated
wool
journey
shelley
mouths
glare
nelly
##kia
drops
##camp
eagle
core
greenwood
trades
unchanged
ག
preserves
mammals
inspiring
layton
##ᄆ
sergeant
355
rather
##ische
wander
whisper
pollard
[unused520]
sort
mouthful
kappa
brethren
jenks
smyth
oslo
lambert
assess
contentious
upside
##keeper
wanted
##ution
nuclei
activist
addressed
##edly
glamour
##itaire
bumper
lei
ensures
himself
[unused795]
20s
370
1662
740
stamp
equal
stranger
##uous
dwyer
roche
[unused20]
[unused310]
duane
tuberculosis
magdalene
##for
ක
306
ע
hue
appendix
pushing
flex
goodwill
##phi
rag
drastically
tallinn
cramer
##h
command
frontier
motto
healing
optimism
nellie
##gating
painful
##furt
book
topological
rumored
demanding
confusion
paused
accurately
ciudad
presidents
marx
fifth
sonya
sinclair
##dah
drowned
##qui
ribbons
mg
collaborators
##ored
ahead
treason
670
footballers
##bid
superseded
pushes
##otte
##པ
master
scout
jewish
÷
##₅
[unused779]
1847
##ments
hugged
priced
willed
deco
2012
##ding
welding
maternity
beside
hansen
primera
beethoven
1760
degree
macleod
rattling
buckingham
neglect
satisfy
appeared
hall
roach
moral
slender
##43
russo
##wat
retained
kenton
inspection
fueled
##ण
clumsy
fern
##akes
crunch
francaise
replies
##idal
##uba
upgraded
jeopardy
##qu
gasps
ingredients
authority
aids
reigns
het
additional
3
blaming
tirana
homestead
invest
60s
africa
summers
cocaine
##nified
nestled
dam
mccain
##¦
tommy
taped
##lr
##bre
frowning
suppliers
##ulously
rallied
wrap
fbi
mounting
generally
050
naval
plunged
nylon
tuned
pentagon
advised
leisure
cooled
##zel
[unused745]
care
##ge
alumnus
welded
dimly
collector
भ
complaint
unto
##xx
qui
traveled
redesigned
hardly
ƒ
##pg
molly
geneva
missions
runway
validation
##amps
valley
shortage
sprayed
bow
spikes
tho
playoff
sharpe
mellon
woolf
fast
[unused289]
lair
gleam
ள
baron
##+
breathe
agitated
clicked
concurrent
injustice
con
begged
activate
acute
penetrated
repealed
predator
mama
wooded
insists
gnu
interest
saw
bourgeois
##rman
stacks
gubernatorial
onward
rooted
thinner
stroked
ད
comment
poe
filmfare
liberated
##ovsky
[unused253]
betrayed
indus
dutton
kidnapping
aggressively
disappeared
cpu
ernest
298
259
##1
##aby
1836
40th
rains
simulator
clifton
##enes
##aman
cult
strongly
remembers
##izan
sailed
curious
fide
im
##gc
nile
##meral
sacrificed
##vere
straightforward
zombie
des
tangle
##inas
pistols
gilmore
diplomats
raging
targets
concepts
reach
##cure
reworked
1733
educated
cubs
sloan
stake
astonishment
brno
peer
continuum
##ta
##rrick
[unused169]
originate
[unused905]
detachments
ා
を
##و
smirk
embraced
clearing
andrea
murderous
shortages
coverage
showcased
sub
archbishop
ministers
europa
།
notes
intercity
enzymes
cavalry
rotated
lilly
morse
specifies
beginning
laurent
tourist
flop
starving
coiled
disguise
coefficients
』
mythical
indicating
zev
islands
##hoe
fathers
##gur
fin
hc
subsequent
##江
runoff
healthy
##ols
[unused385]
derive
##ides
seduce
hills
357
##zi
##語
##uta
mariners
##buch
specific
tumbling
##ffy
木
##rier
conner
picturesque
pedestal
bankruptcy
transmitter
qualities
##erly
##ml
gregg
lovely
seafood
antwerp
1870s
natural
##astic
musa
connell
cruising
praying
winged
ding
##ish
referencing
disciplinary
fund
##bic
dudley
##ists
paying
inning
eureka
celebrating
[unused457]
universite
submitted
##taka
huffed
wiring
ethel
tabloid
freezing
destructive
910
obliged
[unused922]
colloquially
limits
bury
miami
stratford
overwhelming
“
edgar
turbines
##eley
jody
plus
##erland
allegedly
studying
gaius
strapped
investments
production
##nburg
ba
##stov
blinked
heinrich
##一
1632
predatory
roanoke
ups
louis
folly
currents
jaguars
pigeons
jack
alpha
bombay
carlson
multinational
north
accounting
##rou
ி
slack
complexes
soldiers
[unused753]
unreleased
hurting
##ulsive
nominal
auditory
grass
##ₑ
dr
##roi
1925
prentice
##mania
interior
fleeing
assistants
gameplay
recycled
schedule
translator
salesman
aryan
##‒
##ර
kin
proposition
playful
##ら
callahan
tavern
##sso
taxa
nests
woven
##さ
functions
##lidae
##楊
northernmost
overhaul
indefinite
guthrie
advises
radio
bouquet
craftsman
role
avon
##test
##physical
##th
[unused72]
ensemble
follower
##san
settle
coast
pig
development
instrumental
fugitive
clip
whereupon
depressed
johan
semifinal
##ג
secretary
[unused151]
1717
caracas
invariant
bites
##ne
popularity
lowering
dean
##shu
wan
gb
redistribution
handicap
blankets
##yas
ngo
marrying
##cene
offshore
##duced
inhibitors
ulster
mercy
bathroom
kw
chiefs
insert
##itic
##ও
gets
napkin
bruno
##gara
immigrant
4
##hard
##tures
tank
invincible
##vision
sturdy
separated
pitt
##dun
presenter
transformations
wall
twitter
rec
joshua
hovering
absolute
artwork
logical
verlag
##aj
##tica
mommy
coating
destroying
1604
bus
appointment
##user
cheer
residents
affecting
documentary
ms
snout
solitude
[unused187]
commitment
subscription
gymnast
exploitation
carp
republics
х
crashed
##strel
xinjiang
republic
watching
twentieth
knowledge
enoch
anyone
statehood
groove
rick
fiji
overlooked
##nnis
doping
cassandra
stammered
knife
vin
##gum
margaret
[unused277]
##sop
password
[unused875]
##nated
never
hooker
malta
lahore
hindwings
lowers
purpose
premise
linden
adopting
##gree
obvious
odd
mushrooms
stewart
270
epa
showed
##ང
[unused64]
having
##lized
##mie
##cies
##grade
pacing
blamed
smoking
bared
confederation
##yat
scarlet
1642
ट
demands
providers
ships
brief
[unused628]
dryly
##rh
castes
十
##enter
accessibility
shatter
##ric
sexes
##rud
graeme
trams
hi
1897
inherited
##wk
edmonton
137
maverick
prosecutors
em
##ith
trying
canoe
headlined
seize
##oes
[unused25]
euros
##orro
dos
continent
waters
violence
quarry
cade
constituent
dimensions
inducing
pictured
bundle
##quet
■
##nder
strip
tingling
whales
temperance
charted
piazza
chinese
informal
wizard
##ossa
gemma
minors
reminding
embrace
openings
irwin
academies
hello
##rgh
##masters
##bread
cis
charles
companies
stiffly
bureau
rosy
damp
##op
sanity
hq
upland
##finger
multiplication
preliminary
[unused461]
##rigue
テ
qin
gunslinger
northbound
asked
egg
tc
barbecue
omnibus
sedan
grady
weighed
[unused532]
elemental
1968
大
alarms
harvested
belongs
appointments
##ssler
portable
##w
packet
legends
infection
27
condensed
pious
juris
variations
lim
rise
tack
[unused214]
continuously
horseshoe
##あ
hated
orphan
ء
haggard
##tic
316
coil
candle
##iv
visible
uncertainty
occur
streaks
rats
eroded
ported
amounted
centralized
schwarz
##ɑ
ւ
outsiders
##ye
thoroughbred
one
wasn
overgrown
com
religion
sack
syrian
allegiance
luxembourg
aquino
conveyed
##ieg
frogs
##ulla
gershwin
colon
1720
##tal
decline
causes
setup
sabha
perceived
pronouns
argument
sin
negatively
papyrus
##ump
quite
##outs
##ctive
[unused558]
127
appealed
bridget
藤
halted
nippon
##ettes
##house
feast
##gel
palestinian
allowing
excused
alarm
institutions
working
pornographic
den
soloists
39th
scattered
appeal
device
##orne
tyrone
blocking
inhabit
apprehension
firstly
hydra
metres
experimenting
loft
ritter
starvation
##sable
agnes
reliefs
polynomial
voyager
underlying
predicting
lad
amin
argentine
contracting
##lene
peacefully
stephens
resurrection
oath
sensation
plates
##戸
lea
[unused579]
[unused741]
##uddin
153
1926
publicity
##erry
mechanisms
conductors
№
exercises
perfection
torches
intimate
##text
journals
unicorn
1758
home
##das
outrageous
clasp
estuary
menacing
cannon
donovan
א
remnants
sleeping
girlfriends
##iculate
architecture
e
deities
debbie
conversely
##jong
exeter
##ant
explosives
##oria
terri
hampshire
##া
topographic
tomato
intentions
##iani
##lwyn
gan
door
compatibility
tractors
squeezed
##ccus
##劉
版
cranes
shaky
jane
carvings
retro
wildly
alam
exploding
money
##र
wealth
soundtrack
囗
heading
condemn
spirits
pressures
select
weary
‒
josef
won
imperfect
##ate
##rook
attitudes
##ut
townland
confined
tasks
badminton
bastard
display
receive
##due
sherwood
repay
supplement
psychiatry
##mento
comfortable
##orough
##ல
ironically
sanskrit
ngc
illnesses
acids
owner
っ
croatia
supplying
reefs
##ʰ
shrug
shu
da
geoffrey
masonic
beers
##rill
##cian
plaque
workplace
lbs
route
cash
##itate
upright
agrees
velvet
inmates
##ios
suggestions
ussr
este
weber
##nity
contempt
##otted
hs
almeida
##』
ω
##rika
heartbeat
wiener
flashbacks
mecca
mysore
rodney
##bians
[unused586]
oxfordshire
u
reunification
##⊕
lays
greenish
harry
foreman
batch
grayson
[unused127]
##see
512
sailors
template
honored
##µ
##dman
concert
[unused218]
package
outlawed
sticky
510
thong
elections
bucks
region
silk
galilee
##rret
act
##ausen
bun
jay
##key
infant
musik
storing
share
ants
sutra
moth
healthcare
settings
«
ceiling
willem
sealed
kaiser
rental
pandora
##ym
[unused787]
momma
richard
combatants
worrying
portals
unite
opened
nine
implications
info
coincide
川
essentially
##elt
autonomous
programme
##loid
##bilis
[
[unused158]
##∇
nearing
characteristics
argues
forget
##chel
##carriage
ridiculous
spokesman
vertically
spaceship
interpret
coma
automobile
ᅢ
neolithic
keyboard
##ulton
gil
railroads
##rran
##logram
bourne
##ara
anomaly
hammersmith
##ک
anglican
entrepreneur
mozambique
declining
misery
ny
av
##tte
confederacy
medals
absence
revolutionaries
byron
intrigued
buddhism
merely
causing
litre
ra
guitar
borrowing
[unused303]
##cured
how
##pins
tom
##psis
##wick
cc
toe
granddaughter
confluence
orchid
##lists
greed
whip
amplified
ravi
liam
ind
fortress
##lau
elderly
##von
search
chalmers
machinery
royale
descending
ᵤ
##girl
pony
thom
fey
femme
becky
notable
ge
##ther
##jian
1823
agony
designation
credentials
##cycle
canine
physicians
peculiar
dieter
vain
rope
crap
司
gallons
displaced
slater
##lto
wylie
swans
aggression
freddy
##介
##quitable
landed
cruises
rediscovered
…
sirens
teaming
seventies
georg
hackney
patents
168
shoe
contested
##shaft
[unused234]
boiled
berry
##ali
უ
threshold
swat
リ
nicolas
⇒
bed
##ume
##ciful
liang
ː
1911
spreads
sediment
##tree
zee
##ך
lao
1100
hodgson
##iano
archer
boer
##routed
sap
tor
reeling
murder
serialized
##rco
nes
faithful
ץ
honestly
##thermal
cruz
timbers
alliance
yemen
plastered
gown
gerry
fundamental
offers
marquez
[unused711]
decrease
寺
##idon
##icient
##avs
##pus
flooding
testament
giacomo
##chan
saxophonist
adds
##adan
honeymoon
##nac
airline
elton
##tones
cries
drills
yahoo
detached
dissemination
worried
handbook
fundamentally
police
gmbh
1704
jagged
[unused468]
sanders
immortals
reassuring
##rae
##♯
themes
pennant
##dha
rides
##dale
##bags
##gat
##liness
led
軍
edinburgh
glasgow
550
banking
##going
organizers
modification
მ
citrus
normally
hedge
##ola
##oum
emigration
pupils
plateau
hepatitis
[unused573]
##thed
houses
parallel
sipping
mental
##<
口
yelling
##iring
specialised
##nni
hog
theorists
covered
reviewers
prohibit
mccann
leaflets
whig
antonio
noses
001
catch
georgie
cooperative
##東
helicopter
##heimer
azure
solved
thrust
1778
group
cockpit
##bm
##lellan
rochester
feeding
##cuting
tong
flinch
ahl
##ag
eliot
##rosis
orbit
glided
carousel
detonated
coasts
holden
##st
editors
digest
philosophy
turning
sliced
california
briefcase
superman
exotic
1824
bengali
fascism
internment
lies
##ffs
syrup
##–
##ք
cbn
##gins
booked
sr
slovak
percentage
loop
##drum
date
visibility
jake
numerous
neutrality
##ψ
dynasty
alexandre
delaying
visitors
unclear
##ල
pertaining
crawled
hydraulic
[unused727]
bolted
##baldi
貴
poem
sweeping
thee
shandong
transcribed
spa
tyres
extant
venetian
##ero
##ida
expenditure
itunes
radiated
##rona
##ials
##ination
recruits
reproductive
##48
acquisition
##uce
hidalgo
aesthetic
percy
339
##codes
trough
##vate
than
oversized
economies
outgoing
103
pistol
wrestler
maia
kingsley
delays
mascara
vamp
fernando
extra
vicki
##ink
wings
wiped
reminder
cougars
khyber
audition
##che
mindanao
m³
skeletal
toulouse
justine
lodging
interfered
drumming
gazing
quarterback
ludwig
mfa
rank
subset
sevens
##ander
##ulating
engraving
desk
太
shortly
symposium
advancing
m3
action
released
bakery
##qua
brother
##bahn
व
[unused405]
[unused953]
own
agitation
advanced
##eyer
##stone
gabon
##post
underground
pops
scandals
depend
gambia
rasped
experimentation
stool
noah
abbott
##yler
tucked
##sboro
brant
arab
button
##mith
##ional
malice
shreveport
wiggled
helps
beautifully
battalion
[unused414]
self
straps
##polis
flynn
hawaiian
demonstrates
##kulam
upgrade
shaw
livingston
fielded
manifest
##rant
penultimate
rs
locally
pharmaceutical
##used
indians
adventure
1785
##ニ
nwa
##kney
##cco
gag
earle
widen
deserts
monks
natasha
repeating
creating
freestyle
##mp
australia
walk
divisional
##rte
measurements
convex
imposing
busch
wolff
clare
##tream
##para
##ᅳ
##ˤ
##ographic
glow
##ivated
recalls
##list
david
peanut
aching
spoke
confesses
par
perfume
skaters
quad
simone
ah
##nga
isil
chan
magical
kelvin
##hiti
##კ
maker
jade
criminals
[unused556]
gives
league
shining
歌
ricardo
breasts
middletown
cerro
##wig
trunks
chronicles
σ
bald
arrives
orson
bulls
jedi
insignificant
bodyguards
simpler
allmusic
demons
charitable
stained
grams
##ん
captives
keeping
##inga
vip
patio
wrapping
compiler
bauer
bridgeport
shifted
became
exchanges
152
escorting
[unused444]
populace
initially
aboriginal
pill
reacted
mechanics
erased
related
ninja
##har
[unused41]
guadalajara
recruited
cinder
soluble
intent
1999
ロ
##iki
rhode
paperwork
##zek
flies
ि
actress
##gger
biologist
yourself
##puted
prefix
harness
##ows
##kaya
##eck
darby
pork
hammer
productions
qualifier
[unused914]
[unused377]
rulers
shareholders
##jk
alteration
assessment
riff
collateral
δ
emerald
##ngen
##⊗
carroll
##nett
artists
##tino
[unused614]
strode
³
[unused308]
articles
rayon
faint
##ヒ
to
rivers
forte
carolyn
enraged
departing
asserted
—
purchased
sequels
accidental
do
ended
##yar
###
investor
gently
creature
curriculum
swansea
refinery
場
knuckles
chamberlain
imp
tops
palo
charters
ordinary
leicestershire
kincaid
foley
illegally
stacey
designations
holstein
deter
ieee
emile
%
ether
also
sniffed
punishments
leapt
##tized
pillow
ᅪ
slovenia
[unused571]
##frey
bail
claim
[unused687]
poole
##elles
donnell
respectful
eric
##མ
##yte
boasted
heinz
ᶜ
⋅
thor
var
##ot
##亻
[unused191]
reductions
jail
usc
psychic
阿
irresistible
henson
trash
vale
vertebrae
tongues
[unused819]
##止
boundary
ti
元
980
fascinating
事
##hedron
2d
resurgence
[unused557]
##ტ
quincy
ode
98
symphony
##bo
plan
scientology
airports
##sty
cheered
jeanne
norma
frontman
carol
fastened
moderate
rod
curving
conquered
##5
[unused828]
octave
##ʳ
##bbing
assessments
throw
favored
reopened
uptown
##森
beat
routine
##lman
discoveries
charleston
continue
##dran
insulin
damon
projective
melvin
clearer
♦
[unused954]
[unused823]
##rued
splendid
lucivar
dated
##pa
starting
scratched
proprietary
##med
##ŋ
mangrove
santiago
professionally
overseen
corsica
patriots
##ntino
##ほ
智
##za
bukit
vision
groundwater
sultanate
##jet
hardware
wrote
##jean
linear
##ailing
##eber
合
paperback
astronomical
maris
oversaw
coronation
deploy
sardinia
⁺
##15
1772
react
monday
clinics
cherokee
concerned
##mot
murderer
corps
nestor
revealed
sykes
kansas
pregnancy
person
missouri
##grad
fastest
signature
meant
lawson
grunt
brand
##udge
##ania
##sus
hellenic
##nn
contracted
truth
gardening
→
##games
pirates
burden
policy
protocols
carpets
dwellers
sparked
##エ
revenge
barr
basel
[unused923]
##wani
skill
stars
reliable
ascribed
robbery
##曲
##jad
sticking
leith
revolt
thin
reused
##park
##ⱼ
phrase
##sic
afghanistan
vampires
outstanding
downfall
##oteric
wondered
avalanche
demand
##brate
impulse
গ
nor
ideas
watson
shane
nicole
banda
[unused48]
bodyguard
##uda
##tries
##sz
mala
assist
norman
orlando
beings
mae
declaring
##rd
inspired
##abas
##vana
##anum
frequency
afraid
review
[unused524]
economic
•
##itors
spawn
nodes
southampton
##ea
wedge
occasions
weed
quietly
[unused243]
revenue
headlining
##ula
coincidence
neat
##pc
sensations
1800s
strengthening
##ɐ
feature
##ctric
someday
puzzle
##oney
rods
rubber
##lais
##piration
conjunction
dangers
##nir
##ckman
perpendicular
struggled
##31
mx
mon
mhz
alice
afl
staff
irony
deserted
digit
##jima
jeans
[unused919]
##0s
collapses
relationship
tanned
##ص
archery
sudden
benton
##ost
bill
intake
##ole
bumped
shared
seal
louvre
##。
##mori
babe
squinting
attorneys
##伊
##ized
##ة
sprawled
##rank
beit
aged
[unused885]
##lles
landscape
churning
junction
anaheim
relieved
viewed
dreaming
infiltrate
schleswig
##nent
deserve
track
lawrence
##u
holland
disruption
1st
denton
relational
courthouse
aeronautics
soo
horizontally
campus
farmers
contributing
##iot
next
[unused545]
anthology
me
##bs
scarred
##ᅵ
54th
##tower
2002
single
shielding
[unused769]
biggest
415
##yoshi
ɯ
##ᄃ
gray
huskies
designed
breed
ir
##aver
##ege
##ions
andes
vowed
magma
bartholomew
tasted
yoon
containers
##sai
confessed
19th
blackpool
##kovsky
lips
teen
debated
lipstick
##tions
##oz
##tension
burns
amp
介
achievement
##王
vibration
sport
nolan
flickering
tolerated
barron
##gata
##books
marathi
curtains
sprinted
##cks
howe
##ob
ratified
conqueror
治
regretted
held
manipulated
##carbon
##uted
papers
dignitaries
weakly
irina
activation
asleep
##patient
emi
eisenhower
qualifying
accused
narrow
felicity
125
ج
monk
colombia
##28
candace
humiliation
upscale
##rza
rating
flashes
##iol
northampton
likewise
##sk
quotes
চ
##arat
giant
##ul
die
afterwards
compliant
##hia
humanitarian
confidential
[unused895]
abandoned
##−
towed
nice
er
daemon
drawing
vacation
survive
[unused46]
კ
cargo
cheung
##十
maybe
[unused179]
blur
rotherham
weaponry
nic
frenzy
synthesis
means
1923
##phila
emblem
adjustments
christie
##jon
##beat
pascal
especially
ibn
clans
operas
atheist
##ssed
torture
potter
16
singled
translators
shamrock
instructor
[unused969]
##yes
whispers
£10
coffin
##bius
bows
##lika
fletcher
remix
##onne
##ication
##die
[unused472]
redundant
split
ⱼ
mold
##set
princess
groceries
##bach
1990
##ods
三
lamar
blushed
vu
inquiries
f
##cca
private
crowd
singers
yates
marquis
phrases
##夫
descends
caf
carving
##eaux
html
=
[unused822]
flaps
aramaic
digging
smeared
ask
##ipe
mcleod
length
[unused732]
marries
destinations
indication
accepting
flawless
clemens
planners
hendricks
trondheim
examines
convince
leading
spearheaded
winchester
##⺩
resides
favour
substance
luz
assisting
originated
manifold
##bei
##₈
gay
##ll
archie
lear
uc
disregard
haydn
benz
erupted
balkan
##breakers
depot
##tist
effort
individual
recall
freddie
se
skye
laborers
侍
930
seat
mechanical
1834
ochreous
suffrage
villain
stares
distinction
lightning
positioning
##ured
etymology
bee
##woman
leaps
methodist
gmina
citizen
seychelles
brass
ardent
prom
quaker
byrne
spilling
basque
[unused293]
temporal
##出
[unused840]
rico
summer
conclusion
[unused372]
duel
caressed
lola
##jured
envoy
court
ana
খ
##aceous
sham
efficiency
##bby
worse
stockings
[unused333]
##ager
##ways
graphical
educational
##mouth
##chner
cherry
trench
##iary
kang
coordinated
##riders
##sho
trip
crops
coventry
bankrupt
scramble
uae
however
##oia
physically
long
saturated
goodman
cry
edged
wii
pacific
fabric
reverend
destroy
toes
1570
conceptual
tinged
disciples
lafayette
photographic
tap
fossils
invaded
determines
chewed
##utation
strive
wrought
[unused963]
kobe
pop
cost
##lux
leaders
##三
##ph
##alla
##rov
##ision
please
disguised
##bri
camouflage
battlefield
jean
[unused338]
arroyo
magnitude
kite
narcotics
¡
linguistic
##acing
galactic
fireplace
gradually
tun
alexei
1744
##unk
colton
crime
olympian
tattooed
accredited
ethics
friedman
1863
pas
public
inhabitants
copied
gunnar
libertarian
combat
##ound
yan
scientists
column
33
float
auditions
##ulent
functioned
[unused650]
instituto
galley
seminal
softly
sorcerer
canned
residues
08
勝
reclaimed
pupil
psychologist
species
manually
blair
awful
1776
##dou
drinks
##plify
pedro
universally
1660
##stadt
##原
1679
portray
skirt
denny
below
gypsy
presses
tin
##∧
submission
##aia
[unused548]
station
experimented
年
##swick
meditation
outset
conventions
liturgy
recording
alzheimer
ة
particles
constitutional
spp
tel
cromwell
richards
brooding
##ミ
barangay
raoul
belarus
factors
##ɛ
battle
continuing
cast
[unused108]
##ray
lure
412
##ej
wary
consent
secretaries
christianity
collectively
opening
##ok
##ʀ
partnered
fuels
modelling
[unused818]
involuntary
surrounded
seamen
suspense
##de
armor
collaborate
mahogany
##l
##put
xp
tens
1774
##國
basal
##avi
absorb
envy
jul
[unused170]
nl
rejection
unseen
porcelain
##din
##lated
unmarked
fiery
##stand
mediterranean
afro
derelict
squadron
¤
stamps
violated
corey
navajo
flipped
[unused104]
criteria
##pse
october
abbot
boogie
coroner
[unused4]
##ples
scarce
masonry
preferring
[unused392]
ケ
kept
greenwich
fist
##romatic
merchants
##fo
acquaintances
salem
##dalen
[unused206]
perpetrators
browser
##lly
consultants
goethe
famed
professors
ze
€
##ation
##firmed
subgroup
very
lowe
##titles
medici
liv
lucan
##geny
abrams
copper
14th
##beau
rhone
choke
##aar
dunbar
terminating
relay
hires
delle
rainer
binoculars
declaration
sentai
ein
cab
bahia
proudly
intensified
annually
vibrated
deputy
##ibility
pilgrims
##wich
##sol
##bet
##tv
unfamiliar
yarmouth
realized
2003
thorpe
fibers
concealed
an
her
nueva
polished
situation
##sari
celtics
testosterone
square
rabbis
##izes
##nock
340
invariably
139
considering
earnest
intercourse
vow
##門
forgive
clit
sato
performers
##ayton
housemates
##flict
##vil
##54
163
rogers
conway
tempest
dominate
1b
[unused884]
notified
thai
crossroads
cafes
beetles
masovian
##vili
doherty
identity
ama
hospitality
charcoal
drones
9th
databases
##rval
305
indy
##bc
crates
charley
machines
sandra
smoothing
##ann
frey
archaeological
adherents
ponder
das
sparsely
##uses
lock
indicators
##port
ե
blade
##si
buckle
goofy
##tenberg
##verted
diameter
registers
anticipating
##merie
southern
visionary
persian
[unused307]
村
tu
scrambled
385
##ropolis
ran
##rked
application
zoom
英
106
vol
liberals
##illa
##inator
[unused264]
patented
rosen
reputation
assaulted
elements
sheikh
enterprise
succeeding
horns
annie
stabilize
ц
##nz
य
##mada
climates
##yle
[unused427]
צ
sleep
iraq
blind
[unused341]
biodiversity
honneur
lotus
##vier
taxis
practicing
derry
husband
ethernet
novelty
2020
188
clary
passage
[unused754]
##rso
onto
stronghold
myself
genealogy
consisting
searing
glowed
racist
assassination
visuals
##氏
saves
scared
##tub
blaze
shetland
heel
pluto
bulge
hezbollah
##ses
japan
tipping
intersects
manipulating
cornell
token
desmond
coding
zoo
[unused728]
categorized
ollie
raceway
adventures
beams
redesign
##usia
koch
algiers
rich
##漢
napier
fairs
insider
decades
nautical
octagonal
branding
##rdan
##sko
sing
collections
##ser
mattered
198
carlos
[unused549]
variable
petition
aground
dvd
##lai
onboard
available
torpedo
bedfordshire
##tama
##cz
steps
installations
火
##ere
anger
hare
madam
felt
nah
austrians
reacher
organized
preston
trainers
tramway
sloop
dip
racial
##и
1560
unique
electronics
smooth
belts
experts
konstantin
hide
宇
##ified
mutually
opposes
rested
gospels
vacant
southport
sprung
##path
growl
戦
##dilly
##36
trace
costume
post
：
bangor
##eiro
figurative
[unused339]
formal
iq
mint
cartoons
grades
sex
[unused421]
##bility
##ט
ₜ
diaz
eki
[unused348]
hope
heaven
##tura
284
walks
tt
tired
ramp
wishes
ticking
undead
moans
cans
kaitlyn
parasites
suited
plucked
##vie
insurgency
excuse
patriotic
heresy
holidays
bronze
rue
travers
##ᵣ
vacancy
solvent
##uring
##rock
2nd
terry
pearce
210
newspaper
uv
cowan
1799
solemnly
1972
wavelengths
bouts
##ndt
matteo
##cturing
お
pulses
plea
talks
##rsten
##wu
##ppe
infinity
townsend
##iste
##vd
papa
horace
rhythmic
windmill
horrors
chilly
correlated
[unused525]
##⁶
vr
steamboat
rehearsals
quantitative
##mah
rebranded
bats
brightly
marxism
56
bring
spanning
##stock
theta
expense
中
fewer
allows
##bell
crawford
##gga
keller
[unused629]
huge
babies
surviving
spear
sigh
##vious
з
demon
mustache
nina
levine
takahashi
seductive
werewolves
##genic
participates
1944
proceeds
λ
increasingly
[unused431]
1878
oceans
ingram
1736
dixie
##tism
sock
shiny
##iga
golfer
supervision
##lt
indigo
##gical
newscast
##ট
informant
ᵀ
identifying
advent
republican
amc
laude
[unused931]
1638
dizzy
breeders
vaughan
territories
ambassador
neal
bloc
declare
underwear
venus
holt
hay
##nea
days
gloves
rabbi
##olate
##yst
testified
paradigm
peter
messing
##باد
1973
##icate
##ory
exclusion
##pressive
knowles
bundesliga
offensive
berwick
[unused463]
fingernails
delivering
kellan
1949
##mon
hockey
shotgun
manor
cornice
pga
interviewed
soto
pots
ina
dyke
bastards
unionist
texans
metal
lynx
outline
stations
##tops
##₊
maharashtra
foe
unpleasant
campuses
obscured
seeks
##tum
biomass
1790
[unused733]
cured
harmonies
flyer
brien
[unused993]
##lative
sustainable
##icide
ting
bottom
presumably
」
exile
consul
wrong
retention
troll
س
epithet
cree
passengers
mound
unusually
butterflies
nba
crowns
fidelity
educate
newmarket
sussex
wright
##cion
avery
printer
jin
come
##永
guru
affection
por
##gun
inadequate
motorized
sorry
shave
##elis
uta
guangdong
##mma
[unused294]
romania
page
suzuki
տ
##ado
brave
49th
crypt
kay
slade
[unused564]
apologize
kimball
cinemas
##shot
bore
##*
ø
king
surgeon
metro
[unused976]
canadiens
##oma
breeding
yang
curate
campaigning
centered
##ᄉ
plunge
##bourne
dempsey
link
##nick
myanmar
thickness
ordering
affluent
jeff
sophie
fours
##lak
laszlo
routinely
##stein
garment
statue
ا
retirement
drank
##ろ
yearning
roberto
columbus
rare
trimmed
##rea
breakers
formulated
1922
period
steamed
##khan
jackson
ariel
hissed
debra
##vers
take
overcome
boosted
##him
tends
greta
slumped
archival
lanes
toad
##haven
shaggy
sharpened
altitudes
subgenus
lai
fired
daly
40
heights
‘
roadway
##т
carpenter
氵
theatres
illustrate
##id
≤
人
flagship
##sbury
1692
比
nadu
groningen
padded
recommendations
prodigy
punch
##etano
def
##lga
fc
stagecoach
establishments
##↑
outcomes
undergraduate
##zhou
reformation
resurrected
accustomed
khan
bay
##rner
recruit
##宗
lash
algebraic
emptiness
psychiatric
[unused144]
colour
pike
fuscous
rouse
defeated
zhao
unacceptable
peterson
blacks
##འ
lcd
born
##urst
smashwords
appleton
kent
[unused992]
北
competes
scripts
demos
augusta
##ears
am
exponential
و
##rade
generating
##e
pioneered
##皇
echoing
70s
customs
capacities
フ
retrieval
1946
##han
raped
wipe
reflected
triangles
##ling
makes
harrison
capitals
streamed
gaga
affected
ceramics
elephants
「
instead
anxious
cereal
reorganization
coaches
trooper
substitutes
##udence
itf
1906
conserve
##gman
1894
bees
wish
sha
communes
tis
remote
gujarati
37th
policies
belt
##zyn
##smith
1729
##ntial
lizard
roth
##д
cabaret
antigen
relation
caliph
horizon
colourful
equity
waterloo
she
swell
##ms
interacting
##lip
♭
~
soc
americas
movies
vance
aa
aback
branching
##帝
introductory
##tort
possesses
runes
objected
collin
bwv
208
generations
##sberg
curran
##phine
##ede
anglia
periods
defensive
museums
[unused330]
##„
[unused433]
stunt
1626
arabic
1955
pits
[unused836]
costa
▪
##nee
[unused424]
org
genus
raymond
mortally
profile
retrieve
wits
nocturnal
chapter
injected
catastrophic
clothed
pointless
[unused434]
briefly
fears
remastered
reported
nuts
##ந
##makers
gran
flexible
sylvie
##moor
suspension
ebook
soccer
eternity
hangul
most
explodes
inability
displaying
fishes
mistake
##ance
pleaded
mayfair
iec
1961
##lined
elusive
armchair
thicker
##3
tangible
##ose
restart
rattled
##3d
##oli
precursor
relate
motivated
civic
candidates
##ᵏ
8
##♠
battles
screenplay
icao
[unused913]
paz
lego
skylar
memory
[unused790]
wished
[unused173]
claiming
##hearted
increases
blood
ण
##uc
grief
babu
##tracted
∆
obstruction
encourage
explosion
216
##র
ラ
fleet
peking
yells
deadline
ล
arrangements
otto
[unused751]
sega
130
norte
ivan
succession
##gami
##rix
traditionally
lawyers
database
exposed
undertook
selfish
happier
trader
##powered
break
manuel
barbarians
cheated
advising
presents
[unused697]
raphael
sobs
murdered
question
isis
toppled
tasha
350
complimented
pasha
shown
amy
noun
radical
##chment
energies
telugu
cholera
thesis
##mere
##feit
khmer
##elo
collapsing
arousal
##地
##ure
somerset
weighted
decisions
rip
imam
anand
certain
yep
criterion
abbreviated
illegal
retorted
controls
haifa
duchy
stuffed
fix
relaunched
elevation
beg
scare
##dder
beauty
slab
womb
##sin
freeze
rhys
sells
realises
tied
commemorates
[unused353]
unfortunate
dana
kabul
##cast
3000
freighter
frown
cheyenne
members
jd
რ
meet
montane
[unused487]
sparkle
djs
warring
munro
##hei
rus
domino
desire
polling
examining
dug
noticeable
×
eldest
begging
bullets
crab
griffin
stadium
##安
berth
##wood
place
##raus
platforms
evidently
rescues
robe
huts
bey
feldman
utilizing
##ð
superintendent
liquidation
glue
commonly
pat
creditors
week
##nivorous
bella
##xed
eleventh
francois
particular
layne
jihad
creole
##isi
##ma
spanish
transferred
kapoor
[unused720]
bsc
volleyball
健
proclaimed
then
##sonic
kylie
ʂ
bar
seaside
noteworthy
outreach
##ছ
viii
##ifer
680
syndicated
findings
##gre
westwood
godfather
dixon
napoleon
painted
maintaining
[unused263]
christy
subsided
gallagher
plump
##adia
mark
spying
4th
squat
donate
attachment
spur
refrain
##lth
rectangular
wheeler
##evic
reads
paula
[unused40]
##ging
´
leased
333
psychiatrist
sol
rehabilitation
gorgeous
friar
teammate
milling
gem
worshipped
vox
betting
endured
cork
listening
rana
staples
constituents
he
406
[unused141]
laboratories
tunnels
memphis
engravings
mastered
strategically
garbage
loudly
ง
season
recipes
##trip
田
raleigh
##lone
tempted
audible
gardner
ʉ
##tered
spears
vaudeville
uneven
metaphysical
##kou
##hoff
coal
kaye
atlas
166
##form
closing
sociology
##sner
epsilon
upgrades
carnage
foul
##hd
##mina
boredom
webb
##ப
##ラ
written
##rangle
ecology
superstar
paler
bon
announce
##gam
ₓ
##eno
exclaimed
fourier
frederick
##watch
paterson
langley
entrances
ᄒ
changing
baptised
callum
##zione
dade
congregations
hormone
berkeley
##enne
pumpkin
consoles
lover
starts
prejudice
dominic
chu
450
[unused475]
##47
cale
broom
prospect
zoology
earth
##iating
galerie
liszt
⊕
fit
chico
caution
dripping
ں
##dog
cool
[unused237]
northwestern
ie
normal
asturias
fis
##belle
judas
chairperson
mystical
interdisciplinary
synonymous
1989
panel
govt
correctly
burgundy
standalone
acquired
broader
##mora
##π
cloud
yusuf
newer
cheese
[unused443]
linguistics
relatives
bryn
westphalia
##ben
ₕ
discrimination
##nable
##nda
jena
##ouse
##nger
##eche
orthodox
scotch
cameras
capital
parma
cancer
cuba
planting
facial
roderick
##uis
##active
omar
[unused600]
##lving
entity
49ers
shannon
handled
##瀬
246
1903
##ж
##lley
##res
treasure
jam
carmichael
renovated
improvements
painfully
##kan
archdeacon
genre
[unused270]
niccolo
marked
presented
longevity
sanctuary
shuffle
bayer
[unused805]
##bon
slit
ching
nik
[unused98]
awaiting
##clops
##cp
tran
##taken
ache
alright
antiques
currie
distribute
fifty
feminist
charlton
expectation
wei
melodic
welsh
[unused137]
##sight
hypothesis
##ik
gallery
##ffe
17th
told
mass
##ador
211
##oire
##uet
##creen
stampede
leary
drug
premises
genevieve
trumpets
##bl
salty
zinc
steppe
##fies
jimi
09
oppressive
clean
##⟩
##iere
deed
##ᅡ
carson
pet
motive
lift
lauded
yong
dried
bro
blitz
prematurely
pixels
đ
descriptive
[unused228]
[unused418]
wendell
invitational
approaches
watched
annexation
westbound
grandma
customary
##boat
koreans
prizes
kids
##dos
garland
huey
##kiewicz
anxiously
poetic
mammal
##kko
malmo
strands
juvenile
minus
twelfth
exceptionally
##iec
ན
tobago
##ks
##う
##gra
caribbean
astronomer
tall
smiling
##rica
grains
anchored
ancient
fra
processing
riders
ecological
arrange
hale
villains
anhalt
##ᄎ
tombs
lumpur
racetrack
monograph
espana
scots
dining
airmen
robb
ה
adventurous
##gs
##itia
gig
tonight
ambassadors
[unused344]
translated
ு
cycling
hadley
sonia
rumors
1792
##flow
ultraviolet
##tness
parts
azores
secluded
greeting
jose
mouse
##mps
bucharest
batavia
щ
[unused636]
[unused764]
[unused648]
nos
pia
##mming
amelia
verification
warehouses
gottfried
##mos
topics
blues
##meter
future
exiting
##tia
##ffa
will
during
goodness
crossing
comets
notion
wherever
showcasing
253
pam
graded
anzac
sane
す
denies
[unused780]
##ா
malls
nana
policing
[unused84]
spiders
##rder
barton
民
##ibar
calf
starter
258
##istle
patches
##was
serves
terence
[unused181]
intercontinental
##lyn
hormones
bearing
[unused128]
analyst
lightly
bosnian
scanned
##ロ
resembles
enlarged
consulting
oboe
8th
winked
##chin
financing
furrowed
pausing
save
##enburg
[unused668]
torres
[unused298]
##urable
sustainability
stone
showtime
aux
throbbed
1937
regime
namesake
##dust
##ece
##ates
##lav
arched
authorization
precisely
##八
##sper
##mm
progressing
accompanied
‡
novella
culinary
liable
fitzroy
madden
安
primate
##ration
winfield
##rks
bianca
ambient
theorist
##gnant
##say
concentrations
yielded
crambidae
overseeing
charges
herb
##itating
pursuant
##eum
jem
noticeably
[unused928]
hero
##ations
hip
pumped
1805
specialists
loki
monica
performer
palaces
node
garments
horde
ki
randolph
jocelyn
ingredient
bain
dresses
submarines
static
experiment
##antly
##ired
shy
attends
custom
555
steel
posthumously
measuring
textures
##jord
##sburg
##lovic
black
マ
obey
sperm
achilles
bracing
bertrand
but
##walker
##lastic
io
arden
marilyn
fraud
beatrice
interaction
props
chips
##hor
phd
groundbreaking
are
furniture
freely
rochelle
summit
posters
江
confronts
derived
lois
shrub
liberal
graduating
drawer
aces
successor
##akh
sci
##lick
successfully
oklahoma
sobbed
depicts
stunned
##、
lange
duet
sacrifices
hampstead
strict
soprano
lose
account
powerless
plant
restroom
clutched
##oth
185
121
rothschild
packets
##tangled
blows
seeing
rbi
sniper
skulls
##fers
caden
again
inspire
analytic
devastating
varsity
neighbour
##ия
##rice
hoffman
##riety
inspirational
extracts
communications
playground
ipswich
tried
banners
relic
clearly
filippo
noodles
farms
knew
1764
ireland
southend
##tina
anti
##fleet
##sle
connects
substrate
[unused439]
upheld
playboy
foliage
[unused879]
warlord
stifled
dimensional
absently
animal
verity
pleas
fascination
rendering
zoe
[unused1]
assumptions
##ood
devi
296
stabbed
designs
invertebrates
distressed
diaspora
[unused530]
225
##brook
##isson
conservatory
arose
enter
younger
creativity
##nica
malaria
##mana
##most
dispersal
eyebrow
##sion
recipients
116
productive
1714
charter
exhaust
repository
bipolar
enrolled
horatio
recognized
lanka
persisted
toast
roughly
exhibitions
河
##ntine
phillies
stevens
discussions
imply
besieged
辶
[unused528]
agreeing
##mund
catalyst
hum
gentleman
flames
buying
northeastern
crystalline
waist
1650
shifts
##ow
biographies
fission
pdf
##asa
sheer
##cles
works
##21
occurring
pronunciation
##zed
##დ
##gis
robot
[unused990]
andersson
speech
##rke
ingrid
shove
tatar
worthless
historical
##a1
##lia
caliber
ending
climax
month
disabled
ط
##⇄
occasionally
##rzy
[unused422]
cosmetics
##—
amalgamated
peas
holm
##ove
##mler
essendon
carla
oblique
plata
missiles
performances
##red
1987
heightened
1658
smoked
##trics
glancing
medicines
[unused792]
with
flexibility
##म
histoire
##ako
ₐ
baker
reminded
heiress
138
pratt
discarded
counting
guerrero
##zar
##nam
accolades
relocated
sized
bandwidth
bmw
boyd
maddie
lacking
82
forgiven
seized
##tees
##ered
jax
nitrogen
typing
audi
continues
⟨
withdrawing
wolfgang
cradled
draped
isle
chapters
##aton
msc
rai
##lved
philippine
##bled
conditioned
inclination
##ignon
bits
reflection
taxpayer
forgotten
oven
transitions
##ehan
toxicity
moving
[unused505]
##nae
##edge
bradshaw
arterial
caucasian
caledonian
##isa
rani
##58
brenda
broadcasters
homosexual
rey
weep
snow
sentiment
##bation
forgiveness
##edance
messengers
spectroscopy
##own
launched
cricket
vincenzo
integrity
styx
zion
##ayo
उ
cody
cabinet
##iu
sets
sumatra
licensed
##信
dong
phillip
##ttle
scenery
enamel
37
fictitious
him
repeat
##region
friday
[unused189]
pa
revision
|
sky
##nia
ballard
partridge
eighteenth
soundtracks
marred
swirl
180
##bbling
airfields
curly
foxes
abe
232
##・
☆
mn
sundays
advisory
##tling
gilles
apache
fashion
ه
glitter
ideology
expect
##nig
grading
1959
nearby
referendum
bonfire
breathed
##河
wrestle
gaulle
collapse
appliances
journalism
##ʂ
moan
##chua
iain
gallantry
##des
lip
fest
dynasties
blasting
[unused699]
annoying
departments
treats
fairly
##cade
reluctant
hungry
##eng
monkeys
sketch
athletics
voodoo
inhibition
marek
erich
##ス
history
294
schumacher
against
##‘
philology
cutting
speculative
1801
rhetoric
mesa
421
##unced
##movable
1838
ballet
rejecting
controller
jenna
millionaire
sunday
projectile
##itical
athletic
xvi
wins
millimetres
prominence
commissioners
finnish
competent
##lom
conditions
respond
orphaned
##verse
275
##down
renew
approaching
stripe
travis
##wing
order
drive
belarusian
##sca
caldwell
forthcoming
##uity
##kovich
dso
colder
incredibly
booklet
aircraft
tow
त
regulating
upgrading
theatre
[unused445]
photography
104
botany
consultancy
edwin
rugby
baird
##grin
libraries
主
##imo
##utnant
turquoise
curt
likeness
resisting
acceleration
alternative
q
##nem
flicked
schizophrenia
tipped
##/
84
flaw
tehran
bully
##icum
kitty
##±
##paper
seine
##rrie
##ク
永
glorious
ruthless
allowed
annoyed
finalist
presumed
[unused975]
healed
##sp
##་
condor
chest
wasps
bearded
wide
さ
montreal
hahn
kamen
engined
recurring
constabulary
##tite
extracted
serials
##ᶠ
minimum
hussain
disperse
emphasis
##レ
থ
pollock
jet
independently
[unused909]
parisian
thrash
##inian
yields
wooden
##zone
##vac
dillon
taunton
struggle
comedic
chimed
##nar
reviewing
midlands
railway
reasonable
lombard
tribe
transportation
ia
uneasy
guarantee
query
ceased
jaguar
admits
any
##cal
crash
##pired
periodicals
1200
48
ru
guided
immune
##lean
freshwater
doorbell
statistical
##sity
mandatory
dire
1767
royalties
228
outward
##isch
##en
cleaned
dynamite
dennis
clicks
chart
custer
##stituting
convoy
fragmented
partial
1880s
afi
rotor
274
cares
feat
michelangelo
[unused361]
burmese
consecrated
flux
warm
tenor
liquor
gaza
##while
micro
fluttering
alan
orientation
scriptures
handy
demonic
musique
##aurus
hoop
neumann
β
derivative
##間
explicit
fruits
dementia
mentions
yale
cloudy
evolving
##ju
sheets
##tem
colby
berries
yet
patrons
falcon
bree
modifying
brendan
chases
gentry
offer
kraft
ulysses
destiny
tbs
##ays
ghanaian
peel
hopper
grid
larkin
mueller
moisture
garion
sima
ming
ா
##lish
##olis
differences
∈
issue
east
photographed
farewell
una
##व
convicts
survivors
##rut
prevalent
bypass
jensen
messy
##uts
rushed
undertaken
coded
grimm
##k
respected
1761
promote
##ious
shaped
walnut
ལ
petit
grimes
salaries
researched
shelby
stakeholders
vegetarian
bags
paul
##dt
hemingway
duct
giggled
geschichte
measure
##zos
rock
[unused934]
##cology
radios
compassion
producer
crooked
katy
realize
[unused105]
adopted
hear
poised
luxury
dorsey
pinnacle
##idia
coop
reduction
jogging
broke
ᅳ
veteran
maddox
peered
ᄑ
wasp
sitcom
innocence
desirable
##alle
##rera
portrait
isolated
貝
##oot
progression
regulatory
addressing
##₱
aspirations
jayne
##vern
##db
drury
archibald
offended
smuggling
seek
ness
journeys
stress
##tler
suffix
phyllis
fulfillment
##ately
la
doin
nape
accusing
canton
fades
sanctioned
burning
corpus
outstretched
unfinished
##kow
cooperation
pl
##straße
exterior
##ont
##葉
accent
myles
##scoe
[unused139]
1858
،
revealing
amulet
[unused37]
folding
kant
[unused290]
complained
continuation
1816
##sky
##film
wb
crotch
sizes
authentic
notoriety
ptolemy
##write
carbon
careless
official
graffiti
wadi
migrating
mobilized
estates
cited
国
module
paralysis
openly
nationalities
charities
bravo
expired
whitaker
appointed
woke
##chman
##der
wheat
##hit
##на
nhs
##aran
frowns
overdose
belmont
##hett
honolulu
fever
##ם
##sa
widened
cut
##keepers
turn
functional
rudolph
##ভ
##ary
epic
invested
shifting
pearson
hoping
progress
##ree
ल
huang
##hun
sixth
signifies
applications
##in
##tagram
deals
southwestern
[unused829]
##rat
shiver
clients
##virus
##iidae
##bham
##ill
records
mab
™
##jal
sensible
bhp
algerian
##™
buds
allen
inhibitor
vectors
basha
⁷
turmoil
rector
dilemma
statements
##buro
undisclosed
covenant
nathan
feasibility
vitamin
sited
jarvis
strikeouts
##zell
chiefly
indochina
creek
##ppel
tragedy
austen
##ivation
advocacy
##dav
dock
lives
marguerite
inspect
biological
会
##ude
panted
maneuver
blanket
disgust
php
huffington
[unused18]
sunken
miniseries
##pool
##bro
##ள
க
##dden
colorado
occasional
∇
##pr
##ythe
[unused506]
anna
rodgers
midi
##chi
souls
trusted
signals
ferries
love
trailer
##bright
efficiently
##eu
tugs
dave
possibility
luce
dime
blog
academy
gables
°
moods
উ
dell
felony
deficit
rained
speeds
fore
investors
powerhouse
norwood
sbs
riches
objective
pets
contains
##you
##戦
forces
mira
coward
apostle
supporters
greer
##ⁱ
denoted
##zier
##uting
judaism
神
increase
愛
seem
calvin
##uve
suriname
⽥
sons
##方
henley
predictable
##tidae
disney
##宇
figuring
##frame
speeches
embedded
##iy
cultures
live
trafficking
vascular
##ए
attach
##chenko
gore
violation
patients
kitten
deserved
##iss
homosexuality
gu
##cht
celtic
ref
##llum
closer
##э
lasting
logistics
prints
##iger
unnamed
##sher
quick
biennale
mccartney
incomplete
##vin
##washed
humanoid
wiley
55
ي
divorced
nobility
resulted
routines
splash
leak
mcintyre
counterattack
decommissioned
##claiming
219
##01
##hein
per
##wd
perceive
terminates
della
[unused135]
careers
[unused855]
guarded
sweating
bunch
plight
chang
##landa
##hardt
corvette
serve
measures
##hey
##sman
##mei
dc
kuala
fur
whether
sweater
kindergarten
feudal
arrest
votes
bryant
initiated
astonishing
##xes
sequencing
##₩
##rane
prepares
##imate
uh
##xi
nomadic
benches
##pee
##ika
monty
coins
guy
michel
##উ
swings
zambia
）
startup
paris
ᅮ
##rds
##村
adolescents
fires
novo
glucose
spd
1768
alien
chilean
knighted
faltered
stevie
somehow
##よ
priesthood
[unused486]
adherence
##ɨ
vocalist
medalist
brentford
02
kassel
arteries
shoved
astro
saddam
marital
townspeople
[unused373]
configuration
ned
##shima
wise
agents
八
brest
restraint
ferguson
lets
comune
##sius
dylan
colonel
cuban
rosary
##iled
ョ
pour
brazil
##vances
##apes
maison
begin
sesame
flown
tertiary
92
repeated
reflects
metals
##ers
##pop
[unused54]
natalia
external
whipped
»
下
##ici
##ب
.
##gnon
shade
##mes
##sive
##थ
1934
utah
surprise
##ien
mutation
ᄃ
embarrassing
absorbed
themselves
suitable
เ
breakthrough
architectural
liverpool
cells
qaeda
reactive
##mide
doctrine
[unused670]
1
doubts
lithuania
##ayan
wanda
仮
meaningful
marie
ecosystem
parkinson
##rard
氏
snowy
rd
mickey
penguins
pressure
##ٹ
insulation
mora
anatolia
stemmed
unconventional
devotees
postdoctoral
dent
travelled
stones
roaming
##家
[unused2]
statewide
business
batteries
university
tolkien
subfamily
##sities
encompasses
eyelids
a1
battered
bearer
dice
ramsey
monte
gi
belonging
honor
hamilton
##tically
[unused288]
precautions
##ley
skyscraper
huntsville
[unused758]
##osition
cypress
earned
##wyn
bean
badly
##att
shaun
dustin
chance
poker
2010s
midland
cher
interface
keating
parcels
barriers
walters
dozen
does
##oya
fortified
involves
backed
seller
anthropologist
go
freud
mills
tissue
aspect
[unused888]
jerk
goin
ch
labeled
proceeded
gather
avid
whitish
borough
camilla
pac
sporting
captain
vulgar
[unused411]
ッ
th
##ney
dahl
visions
young
argent
##ь
attendance
preparing
major
whispered
baroque
primetime
anarchy
bahamas
santana
transmitting
##lea
##hot
dominique
[unused982]
##bolt
peshawar
##nami
##cana
doctoral
/
permanently
inaugural
##rana
262
delicious
##neer
clocks
contender
motown
hold
divers
ribbon
##tter
##hua
122
foraging
organization
looted
岡
##as
joints
##tao
attacked
seizing
##run
farm
bates
##missible
responding
g
tr
[unused142]
rory
olson
saunders
vitro
##itha
lori
townsville
##ters
inlet
gathered
tours
崎
shivering
[unused119]
##rba
##guide
immortality
rewarded
boys
auf
motifs
##ica
clerk
##後
##hita
##ably
##abi
spy
ukrainian
bone
##rent
warned
上
binary
kelley
seton
trains
##²
gearbox
mckenzie
accomplished
armour
harrisburg
##bilities
252
throwing
[unused473]
goaltender
##quent
gdansk
strand
georgina
evolve
savings
inched
abby
mr
bono
harmonic
##rter
locations
##rral
chambers
repeal
va
1970s
ভ
[unused911]
cretaceous
##eit
[unused899]
ascent
##二
ways
incorporates
artisans
kirk
##dance
##ष
##iction
touching
pastoral
##nikov
deadly
afb
andover
puff
##ensis
operating
dad
original
vicente
rica
publishers
practised
##ख
biographical
##trix
theologians
instance
##kus
oxide
forest
vault
sediments
denounced
##氵
suffering
immunity
birthplace
[MASK]
118
accumulated
athlete
denis
thierry
compass
##gt
##ira
##unda
##phic
haryana
readers
deserves
spec
gable
song
committees
##√
goldstein
##>
##lysis
##evsky
##orous
sovereign
gunnery
literature
##roids
astrid
nc
ridley
fold
construction
termed
mocked
herring
sally
manga
dubois
[unused590]
##eis
h
revolver
styles
microwave
carpet
warp
1742
ส
marshall
dani
##aa
eventually
gill
stucco
surpassing
kc
avenues
doctorate
##vyn
dt
bf
##apa
##“
plunging
butter
complement
flattened
entrepreneurs
bin
parachute
visually
tractor
parcel
hummed
rifle
eduard
gaston
disused
enemies
atp
##rao
islam
##yr
describe
treacherous
##aan
keeps
batting
##qa
pocket
raider
hurried
oaks
guides
election
ios
coa
pali
greater
224
airfield
erik
##nail
administrative
dunn
##km
##dine
skating
pagoda
##mun
butch
##burg
##57
##with
ᄇ
##work
lifelong
##runner
[unused824]
##fold
seduction
holocaust
meter
[unused882]
mod
pendant
barbados
requiem
##iq
##テ
chatting
atari
declined
aide
nord
distracted
stove
apart
##pheus
abducted
laundry
skinner
##ned
##kato
##sham
kenji
sudan
equivalent
dwarf
mackenzie
uninhabited
focuses
yugoslavia
achieve
odyssey
transformers
slim
rebuild
rocco
forests
dodgers
##hesis
##chev
billion
##type
regard
fake
hugs
puck
acton
##dee
[unused659]
equally
##boarding
burnt
older
pg
plc
##rled
sparse
box
##kee
hk
captured
maize
vast
therefore
[unused916]
##0
##ango
deleted
majority
alert
turtle
martian
journalists
markham
rhymes
peterborough
probably
sorbonne
left
modules
unearthed
bishopric
##la
highness
possession
##anian
cords
petersen
lublin
syndicate
cars
wheeling
reasonably
payment
dissatisfied
##odle
hound
ties
donated
322
pumping
criticisms
##ャ
adjustable
language
[unused351]
143
meta
lark
goats
katharine
##ore
strasbourg
camel
performing
##ined
mayo
admissions
##wes
piedmont
##rano
claire
vane
[unused136]
hussein
[unused643]
straight
1938
moderately
[unused985]
chesterfield
intersections
volunteers
recognizing
firth
fetch
footed
lowell
wilfred
coconut
underneath
treatment
†
carlo
fitch
##zy
##之
##$
troy
##umatic
rankin
anime
1703
##34
mistress
threads
tooth
diplomacy
fragrance
affects
cohen
slavic
goblin
disclosed
least
freeman
foolish
karel
alternating
##lid
##lf
[unused176]
##千
snaps
firearms
motor
harm
edmond
priory
##tre
[unused679]
##oi
marvin
baptism
##ives
##yna
fleetwood
##owa
##wc
##ی
improved
##bone
##ire
##tou
dragged
信
dissipated
ᵗ
ensembles
lawsuits
real
superhero
##cier
funny
cowboys
ui
kenny
uncomfortably
crusade
##acies
commercials
⇄
rahman
##graphic
unsuccessful
fda
##aha
##roller
##thor
samson
payton
cobra
leads
european
vibrations
伊
##tale
training
reluctance
punjabi
ァ
unpopular
brightest
shi
gaelic
1891
picking
##ked
bureaucracy
borne
hardcover
с
kitchens
programs
spence
stirred
rubbish
turnbull
##oof
1754
##iko
winkler
eight
##v
[unused603]
payne
horror
##vent
monarch
irregular
thursday
similarly
1888
^
##tosis
nominations
##ee
##zam
help
wildlife
##cratic
headed
massif
社
##rative
speed
backstroke
nudged
1750
gasp
1646
##ulo
bram
toll
boxing
evade
aus
п
cummings
gazette
anglo
borg
[unused343]
reproduce
uno
investigation
avila
demonstrators
situ
concept
##nti
violin
breakout
hunted
##logies
##encia
commanders
rams
islamist
##ᵗ
lebanese
alfred
tequila
##color
competed
rocked
trenches
##fs
yielding
porsche
feeling
##ega
##≈
crippled
##sted
jacksonville
reviewer
full
dangling
##wy
##onis
signal
exiled
federation
genesis
remains
compilations
widespread
##tya
madman
accountants
##zio
precedent
thoughtfully
set
identifiable
doubled
[unused782]
bengals
ɡ
lineman
proceeding
[unused306]
hours
publishes
##cting
##ises
忠
prima
predicted
[unused271]
fluffy
cruiser
##⊆
entertainer
##vinsky
passed
shattering
wrists
ム
shootout
married
eminent
midst
plastics
abstract
speculation
##baum
ignorance
##pies
admiralty
##ᵍ
edna
karlsruhe
ignition
czechoslovakia
forks
mccoy
strains
##正
perch
##yev
##gina
st
owing
plasma
stony
mainz
[unused451]
mistaken
yoga
billed
ultimatum
races
specialty
##lding
[unused106]
henry
particle
titan
spurs
##gers
minorities
tag
gain
stung
oyster
##qual
opposite
##istan
belonged
fence
automatic
ruining
[unused788]
##rrow
beyonce
[unused499]
shriek
colony
##ign
plush
1789
ke
adequately
neighborhoods
##urities
spends
horseback
##美
[unused620]
##rri
307
pathology
##zawa
parlor
somewhere
germanic
##sor
wasting
connor
gatherings
albums
[unused197]
primal
187
indo
window
operational
listener
m1
##ner
auspices
bandage
bedroom
##ment
mcmahon
depleted
rollins
wilder
atrium
##日
contributed
र
430
backstage
calling
certificate
kickoff
harvesting
peninsula
latter
##ryn
fallout
princeton
vaults
phylogenetic
272
gulp
iceland
anthropology
##雄
capped
##ports
blackberry
hamlets
ncaa
bolt
slate
louisiana
justin
goodbye
ensure
doug
308
ordained
third
##cb
paolo
freaked
##tha
quezon
##ℓ
1645
vertical
aluminum
cows
##dis
assets
sindh
##mo
calendar
[unused162]
experienced
bedside
##lewood
courtyard
sandwiches
solid
peek
comparing
paxton
socially
deborah
raise
wilkins
walton
##∆
assassin
submerged
karen
1887
blew
stall
exposure
revered
bingo
wholly
clergy
##pment
respecting
sud
ו
[unused425]
ever
regulate
##od
[unused324]
vengeance
reconciled
synod
325
ter
counter
praise
keith
about
esa
chop
fire
coloured
ま
darren
comparatively
houghton
##rail
thump
organic
hancock
melted
palette
after
atop
prized
indifference
mechanism
##meric
mohawk
antrim
airs
afc
##nov
subtropical
muscle
famous
butt
satisfying
[unused731]
consciously
tip
hanna
lyric
traction
mumbled
goldman
##inal
shoots
commando
##hre
reginald
##ruck
version
wwii
ledge
##rop
considerations
superhuman
##vi
garden
grasp
shale
##ʾ
weren
civilizations
outdoor
francis
[unused376]
loaned
truths
sexually
promo
conceded
investigations
republished
israeli
##ha
ང
lasted
tenderness
kepler
##abia
##ves
expanding
severn
cloth
beatles
exports
poorly
owens
military
lt
yelled
hive
##omo
heir
cervical
sunni
##ject
##udeau
whoa
##ов
jupiter
sign
105
lizzie
##inated
processed
prairie
##eral
[unused132]
carrot
constructions
##¬
##oll
miss
cigar
hatred
##osaurus
##ated
westchester
##福
hong
nigeria
suzy
satellites
muriel
skins
buenos
¦
portrayed
benefits
本
trunk
exclusive
184
knock
character
mgm
offices
knight
encryption
indicated
cruise
clamped
optical
shouting
tense
buffy
1770
##tat
##usly
friedrich
ecuador
##ura
curls
aix
auschwitz
plural
nazareth
enhance
akron
granville
asking
rpg
spanned
determined
deposits
tackles
mana
davis
promotion
##vu
##ske
engines
fuck
##max
##uge
ᵍ
specialized
same
indonesia
have
glanced
tumbled
pu
aurora
editions
[unused99]
exam
##mbled
321
##oy
living
eine
ß
##heater
stiffened
ore
some
108
##(
ow
barnet
一
dale
bitterness
bracelet
ン
iris
ণ
lifts
infinite
quartz
##eld
lincoln
[unused837]
noting
##sies
meridian
tasked
grimaced
##nel
ponytail
##ac
macquarie
##thy
eden
##am
requesting
1898
世
confusing
camping
##uron
##rrard
podcast
##bbly
bond
deformation
heath
guyana
lakeside
[unused773]
pods
[unused793]
germany
memorandum
impossible
1759
aimed
ᵉ
⁴
strength
##হ
briggs
emerges
signatures
kingdoms
smug
cosmos
##eve
დ
miriam
parish
injuries
butterfly
nigel
weird
siegfried
##eur
attempted
impoverished
morphological
vendor
congratulations
hyde
stomach
flood
##rissa
balance
##五
emphasizes
lit
albuquerque
indoor
winter
navigate
perception
##eye
hysteria
doha
sliding
memoir
donaldson
argyle
rancho
touring
systematically
ua
squirrels
##ล
banco
tracked
tilted
##fusion
1988
unfortunately
yiddish
confirming
##oses
1856
##dorff
puget
renee
nightmare
##ت
duc
undrafted
hardness
robert
transaction
##eous
##ں
fulfilled
telangana
josephine
##systems
atkins
blurred
assigns
torch
##そ
walled
whitehead
picture
businessmen
##una
tre
##car
curved
wards
artifact
##ifier
sentencing
##tters
vegas
##sr
##hore
run
childhood
dragon
##brush
ankle
novi
ends
金
##tails
searching
escaping
labor
noted
dungeon
loomed
520
neatly
plate
mcqueen
description
##nage
undergone
learnt
bloom
legislators
zenith
野
chess
##spar
convection
hottest
returned
brownish
feel
amplifier
##ison
veil
##d
fins
each
[unused878]
rafael
angel
##sto
[unused383]
hose
munster
##mons
[unused26]
gillespie
240
inches
##আ
levant
rated
calculation
perhaps
constituencies
elephant
height
mercury
downwards
[unused309]
[unused960]
august
surfaced
lighting
hesitation
flesh
luminous
##erved
mascot
prolific
tunisian
1624
1941
##nza
railing
magnificent
shame
##24
1962
tears
##tle
chiang
[unused843]
paving
##mental
##stellar
stakes
bellowed
##view
penthouse
decides
security
muscles
instructed
sole
promised
tattoos
easiest
grips
earnings
ernesto
pedersen
naming
sporadic
san
apocalypse
within
squid
corbin
spinal
##巿
hiring
clover
[unused817]
43
##box
download
raf
cameroon
[unused438]
braves
##は
composer
##worthy
sworn
shepard
fine
closeness
compiling
##rain
hyderabad
##ple
higher
levin
decorated
75
##ex
over
##eving
##eem
[unused456]
interceptions
elvis
semitic
[unused399]
global
downstairs
invitations
##pled
[unused714]
##lem
benevolent
voluntary
##lier
extend
employing
parents
modernized
dawson
camp
##written
##slow
feet
dismissing
##bron
ব
gaze
reborn
annals
built
##պ
##dge
chandra
##gic
frescoes
such
昭
♠
israel
##ury
##vao
##crow
dukes
honesty
audiences
taylor
worm
##pack
##ywood
1843
adopt
commencing
த
overwhelmed
jaw
exhaustion
##♦
##wave
encoded
teachings
fig
##emi
newspapers
##puram
hannover
score
[unused749]
demonstration
##ogenic
##oked
##aux
##vis
1875
ப
carts
frozen
parliamentary
氷
γ
why
##lein
itv
##文
lawful
death
witchcraft
stalin
pleasant
garrett
harsh
posse
[unused430]
financed
climate
ʿ
guests
possessing
gertrude
play
insults
reign
focused
lb
swing
representative
##sms
[unused301]
##pped
rovers
vi
示
rees
sikh
becoming
dalton
novice
volume
##castle
presidency
410
subjected
chairs
hemisphere
dietary
pepper
clashes
mistakenly
symmetry
option
highlighted
陳
timor
threats
janice
rack
venerable
nbc
assessing
[unused555]
robust
rendered
##ո
stocks
colchester
activities
eligibility
##duk
gustavo
altering
excelled
civilized
bikes
slightest
conducting
##av
##vity
harvey
##tonic
chopper
hicks
ව
educators
gus
ˡ
##hill
pairs
##son
dunne
ি
urgent
##tani
##sm
##rath
dalai
width
2000s
##pit
cheerful
##ウ
diagnostic
xx
bloody
hasan
aberdeen
user
ね
nasser
inside
correct
1812
##sw
elector
yankees
synonym
##coll
procedures
##ntal
physiology
##gens
ross
glee
cartridge
##10
gallon
clandestine
timber
##wl
erwin
blizzard
##mity
aristocracy
bandages
tragic
triple
kira
directing
delegation
##mi
enabled
deteriorating
monitors
##،
unconscious
ᆫ
##lusion
blinding
consistently
craftsmen
##rmin
##ு
unfolded
units
[unused698]
faculty
thence
mounds
appearing
amusement
sexy
successes
turbulence
ju
canucks
commemoration
##ח
##urs
bolshevik
##inatory
##nty
deutschland
montenegrin
##ᵐ
ɹ
zimbabwe
produces
sense
mayer
875
buddies
mallory
sensitive
sleeps
##य
pursuing
loss
sighed
semantic
ithaca
##ographer
sql
floated
##ivision
amazed
gavin
established
rhapsody
counterparts
¶
lively
emma
xl
jurisdiction
nurse
banker
##lation
##ema
##eca
ya
decay
responses
belgian
mitochondrial
##sions
[unused980]
##lic
apostolic
[unused129]
title
can
ashford
teacher
churchill
etudes
51st
41
忄
landmarks
##raine
peasant
bound
baronet
##sque
pulsed
##ツ
proficiency
##ending
##25
kangaroo
ᆯ
hastings
accommodate
judging
authorities
emergence
[unused400]
herald
rations
everybody
braden
struck
tells
100th
##sen
artemis
graf
success
wry
reece
catholicism
##nged
##uttered
heaviest
##cy
knees
##thal
expressing
proposal
##gua
formed
fabulous
ville
##etto
aiding
kit
gleamed
socket
113
syndication
television
implicated
shoreline
lords
revolving
214
janata
annum
accusation
performed
petroleum
##haya
##walk
candy
wax
[unused510]
whatsoever
awaited
endemic
##rew
brunswick
##miento
##ps
1901
choi
##春
710
brewing
ο
activists
drowning
carries
walking
##wn
moist
outrage
boomed
turks
##lary
modernism
mori
kelsey
argyll
resonance
puerto
##urized
镇
[unused221]
dealing
osaka
dunedin
fairy
##ᅮ
cambodia
satisfaction
quieter
relaxation
##zko
seismic
consistent
[unused494]
lore
##ew
fingertips
1763
mughal
sweet
3d
##lland
gradient
##書
methodology
surplus
cemetery
##cup
sarawak
defenses
tv
dee
charm
khorasan
ⁿ
equipment
331
seeded
midwest
vichy
eds
taxpayers
wearing
games
disturb
sue
##world
excellent
##hony
mated
##vington
realistic
rutgers
##ش
##№
[unused759]
[unused618]
condition
despair
clearance
rosenberg
##lit
##ᴮ
nicely
renumbered
stupid
remarks
inc
misses
##z
exceeded
fabrics
ச
##imated
sandy
brigade
##健
era
mendes
##iance
identified
greens
##pie
sit
converted
hodges
##星
##mberg
reasons
kilometer
##rocity
##words
rotational
paddy
buried
tour
##iques
begs
subsidies
mohammad
##ington
green
statesman
sen
neither
##：
##59
liberation
safety
consuming
updated
##ln
belief
collapsed
unsigned
processors
wines
##xy
glint
ambrose
##љ
sant
1892
##hosh
մ
##ου
falls
resultant
##ལ
brew
##bour
ill
mann
##law
mika
landscapes
##γ
а
penned
mer
cried
harta
capacity
humiliating
esq
guys
mechanic
connection
[unused185]
primaries
！
researcher
globalization
laval
##urse
289
##ণ
[unused649]
pronounced
hurling
[unused460]
##llon
[unused634]
strengthened
##game
##oja
820
nose
centennial
terrorist
smithsonian
lacey
discs
1904
[unused175]
endowed
√
dmitry
complex
##neo
pretending
prescott
wil
##ties
continental
olivia
so
collegiate
1649
mlb
[unused849]
accept
amenities
trained
confession
##ր
##rm
contracts
salle
evening
ˢ
pts
gomez
##yi
aires
repeatedly
##hort
middleweight
mathematicians
hinges
tortricidae
##adi
dom
parrot
tyne
ubiquitous
reeve
[unused224]
extraction
sectional
climbed
weeks
nosed
hostile
championed
embarked
lust
prediction
##ova
endings
[unused296]
nazi
1885
tits
1915
ep
british
choose
##ppa
stalled
accents
counselor
expressions
china
bahn
[unused763]
jordanian
distorted
watered
jimenez
severely
barber
byte
viewer
refined
##ನ
##lty
rejects
shell
ruby
##ck
obtained
##founded
##খ
regency
thistle
##55
zeta
learning
anita
stalk
ק
belong
##low
cracks
beating
##phon
adding
##atz
##kin
amateur
lesions
oz
paramount
cleaning
soothe
examined
ট
gaming
motioned
amara
##grove
##nery
stages
##rkin
shades
##lder
1995
##ldon
pedestrians
quartermaster
they
specializes
ɣ
corpse
[CLS]
donegal
[unused278]
bullet
##ress
vector
##rance
inspections
died
asphalt
[unused284]
##勝
promoters
everything
fabricated
hays
oversees
nak
1960s
ᄉ
&
##sd
alias
loyalist
は
##bin
##alis
billboard
copyright
mathematical
for
pastor
paternal
baba
ourselves
yokohama
##ener
viewing
filmmakers
##lassified
cristina
force
postage
bruises
violently
apparel
field
entertained
snails
##hat
npr
psychologists
161
stiff
ბ
barge
##ritan
not
##imus
convey
tracing
contributor
124
1540
regular
hereditary
1711
smith
spectacular
winning
hellenistic
##fed
depiction
vocal
##oman
##ョ
drama
[unused337]
quo
ucla
violations
spilled
expression
calculus
occupants
potion
inscription
timmy
kim
169
##erman
##ง
mariano
terminate
visa
material
weather
##ect
ufc
grind
mandir
303
hailey
##ase
retains
session
##storm
##gau
adam
##quin
undergoes
##mill
stellar
equation
fractured
lads
begun
uk
[unused766]
due
kota
##nis
[unused630]
muscular
pol
heritage
needs
mcpherson
einstein
monterey
yuan
baggage
ranking
royalist
##bird
doubles
urgently
##cer
ধ
loneliness
##hiff
##pone
chad
steady
##vered
chef
clay
structure
[unused476]
cellular
[unused854]
modeling
##eborg
chickens
angie
ivy
excavation
manuscript
##jhl
paranoid
reconstruction
canyon
flower
identities
actions
swam
jaws
##rid
arkansas
tony
bolts
州
anthem
safely
carmen
spin
rice
communicated
alarmed
somme
profit
vial
parasitic
awesome
fronted
catalan
softer
upper
florida
burroughs
slacks
chesapeake
blond
lund
gang
frigate
##法
remade
exemption
variables
aura
##mation
tornado
##eda
discussing
throat
buyer
キ
##ity
giles
hostess
prostitution
chariot
woo
部
legislation
elves
earn
herbal
defiant
glove
##85
##iful
reinforce
sour
incarnation
shipbuilding
kathy
acclaim
envisioned
siding
poznan
battleships
exercise
deprivation
ahmedabad
##rily
timeless
##henko
javier
##ima
antoine
sammy
navarre
##elin
anthropological
hannibal
##ˢ
chao
remarkably
destroys
offering
warn
engagement
temporarily
##tric
abs
transferring
head
cairo
mall
##sworth
babylon
[unused973]
petersburg
require
crouched
sheppard
cascade
blackish
##dern
supplier
campbell
enriched
demolished
##wski
1737
2008
roi
acclaimed
plays
truman
##efe
provoke
thunder
awkward
##bey
##pur
banned
1783
baton
##iz
humphrey
##nies
regaining
##fort
sank
stretched
limo
wonder
[unused66]
konrad
##sing
coven
staple
##hea
excavations
ferry
runways
osborn
##kill
powers
moons
killings
eponymous
anywhere
ready
arguments
##lino
milestone
##§
diabetes
handkerchief
read
execution
exasperated
july
jordan
1909
presided
##iography
##wil
##kov
[unused684]
creatures
expresses
##sau
impending
unrelated
oblivion
from
disaster
needy
##unt
tavi
zhang
##oke
migrate
robbie
ramon
1620
leland
227
thousands
delegate
harmful
nm
##ver
abdullah
pins
peering
portland
includes
1775
calder
te
－
additions
hospital
wanderers
serial
vh1
subway
pont
diver
seekers
##egorical
##rith
premium
merged
##phobic
jew
stationed
foil
王
plantations
trainee
gotham
reigned
domes
bret
waterfront
lacks
##lang
were
328
deck
withdrew
ᅴ
contend
stare
-
##bbe
story
humane
palestine
fight
learners
ninth
##tee
##rrigan
fairies
underworld
##rase
netball
boasts
valve
toro
rays
stole
proud
flourish
ignatius
##ɫ
acquiring
##ᆷ
ul
confident
feeder
permit
##扌
bark
subdued
chapel
marlene
有
wilkes
mysteriously
prakash
taught
##dae
♥
payments
documenting
##uch
card
ruth
##ope
bowen
dealings
nk
polar
swelled
discovery
occasion
54
eng
commenting
slaves
2000
furnished
志
##vsky
divinity
peruvian
stalker
gathering
##sphere
superior
##thesis
870
##roud
aqueduct
tiffany
[unused527]
jericho
lights
lyricist
pp
painters
##vik
orbital
1612
##iro
##bolic
##yme
arc
named
##ou
##cap
interrupting
vent
stopping
curled
##kki
bombed
##fp
rt
gear
atrocities
westfield
##peration
critics
gunn
landfall
passion
stadion
##−1
dye
suzanne
answering
##nsen
bicycle
gamma
tactical
pal
dodge
modest
shrill
cabins
mvp
##teacher
buffalo
developing
naples
##dy
woman
transvaal
salmon
##hrer
##dition
##ption
college
1629
eventual
occupations
simultaneously
lexie
##nzo
resort
##sten
kindly
brace
doris
##opa
causeway
bellamy
##chemist
horrific
aggregation
樹
carr
didn
organisation
compulsion
popular
201
privatization
islamabad
jockey
hopped
男
disc
those
##ilis
amazon
##partisan
disasters
$
rivals
spell
windshield
halls
foundation
bois
tough
nottingham
governorate
1986
swimmer
rainy
coarse
waterfall
pleading
##oured
edmund
rhea
gardens
gabled
braid
[unused584]
existent
##oic
[unused255]
ℝ
ballots
finch
##rie
##im
cursing
coalition
adversary
##holm
luther
indices
bud
##29
labeling
clemson
player
##vocation
##flower
overture
##tos
bad
##open
##下
##athing
##pl
##ige
bubbling
tess
156
frankenstein
##zine
dub
malayalam
authorised
##bit
##bies
dependent
##λ
fitzpatrick
##モ
##ড
mock
paraguay
ellison
vila
pinning
universidad
perfectly
[unused544]
inferior
roman
assertion
##新
cardinals
flopped
[unused52]
[unused665]
address
odi
genealogical
impairment
nun
entertain
interactive
variously
characterization
##訁
edit
building
1853
turf
canvas
cappella
eastern
singer
screenings
scent
mi
surrounding
adult
symbolic
concurrently
##lten
merritt
shaded
jersey
lyndon
malaya
phenomenon
##66
fox
##bridge
photo
finds
1724
yell
photos
memorable
¥
yellow
kirby
tournament
[unused806]
covent
ambition
##rting
beale
і
avenge
##bh
##wi
securely
preferences
elegance
emptied
polk
inline
hallways
scoffed
##vic
曲
bombers
##南
social
snakes
##dara
42nd
screenwriter
sapphire
inscribed
spending
murals
foods
pendleton
rosalie
hash
cassette
opposition
willingly
1832
##endez
##moto
##ч
fill
kid
revolution
bends
philips
wave
scream
cook
entitled
cw
clarence
mammoth
motives
executives
##rial
came
lodge
##mite
prophet
stevenson
mug
assembly
crest
separates
4000
noisy
temporary
##uate
devotion
anchor
##bal
online
##2
scotland
decorate
6th
gretchen
diagonal
pbs
##dant
headwaters
careful
ʌ
poisoning
##ae
interlude
##firm
1741
[unused619]
combining
mussolini
cognition
duly
impatience
clones
bug
ნ
鈴
capitol
renal
else
##tr
frs
backing
debuted
supporting
wicket
citizens
##‚
シ
milne
tightening
##ient
delightful
[unused85]
motif
thrilling
[unused707]
之
ammonia
clarinet
samurai
marshal
hendrix
derives
dealers
comprehension
##¢
wc
northeast
images
##ა
entirely
athenian
hotter
imagine
category
banded
##ressed
##ator
awhile
shrewsbury
serious
little
harassment
mikey
leroy
bafta
say
##kk
[unused859]
put
malabar
slung
blowing
##igate
guardian
biker
basketball
##per
upstream
guerra
splits
劉
195
madame
landslide
traces
helm
[unused154]
##strom
implied
rough
pancakes
tonnes
talked
leader
tyrol
ashby
numbers
jews
י
dysfunction
worms
fashioned
##oat
texts
detainees
mingled
##rgen
citation
handball
##phy
coated
##gp
genuine
philanthropy
uncredited
landmark
repair
##ieu
thankfully
assign
platform
round
##ulio
##ban
##mpt
augustus
##genase
dissatisfaction
report
exciting
##inations
##uni
sincerely
laid
severed
##ш
chong
telecast
pretended
needle
##kie
##ahl
1728
composition
microphone
memorabilia
aligned
laptop
##dity
started
unanimous
amtrak
kissing
##rup
drugs
surname
yoko
pope
[unused786]
playstation
egyptians
##mur
tracey
rallies
nomenclature
##dicated
scratch
their
planetary
[unused410]
##ह
rudd
anguish
capita
##nstein
##pton
##ille
mic
suggest
guildford
chiba
[unused702]
##pina
##vah
southland
井
cinnamon
hop
controlled
##pressing
tripped
1782
##ael
eyre
afford
exchanging
##dong
tinted
blessings
pattern
viewers
nakamura
expose
##bbled
##pi
reared
appreciated
lethal
ally
georgian
1930s
acknowledged
families
##vos
consecration
##sche
protests
##ale
ramos
labrador
dolphins
weir
vidhan
hurdles
##nch
reissue
##vera
ob
triad
welles
jurassic
##drome
hourly
##shore
##nk
preceded
bordered
crust
sable
centuries
unified
trio
[unused231]
440
wikipedia
##gen
watery
breaking
write
sampson
gas
flint
thatcher
benefit
weighs
draper
[unused592]
bird
boilers
pray
constraint
##ili
[unused145]
displacement
handing
##ych
calgary
canterbury
trophy
®
lyrical
sainte
##rave
buckinghamshire
[unused671]
magazines
contenders
bold
[unused300]
1813
log
extensions
##lates
m
capable
messaging
য
##ture
efficacy
designate
1787
esteem
elastic
##hear
devastated
furious
camden
harden
pipe
harpsichord
give
##ran
##জ
amore
##graphs
2007
pumps
canopy
therese
consecutive
##na
adverse
defamation
##ং
stallion
lobe
出
five
thirteenth
[unused871]
93
##ech
motions
bulk
investment
ripped
literally
barre
##ʉ
on
beamed
beheaded
verandah
museum
"
##ido
mv
population
whore
##ating
amino
##า
[unused238]
champion
600
daughter
fivb
tex
astronomy
##ℝ
truncated
bleeding
土
marks
topical
intern
novels
gases
conservation
tx
capabilities
ʁ
debating
manned
retreating
261
snatched
playback
issn
encore
orchestral
tampa
barrier
##cted
mortar
##ი
susannah
exhibiting
##imi
sunset
[unused765]
flotilla
[unused873]
hardy
orphans
##rts
##ط
expeditions
↔
##eet
coordinate
rapid
cornish
##cas
[unused358]
##table
##oss
##caster
##bard
##zzled
rowe
##食
##cc
skinned
astonished
thieves
rings
casket
[unused44]
emerge
dealt
##col
pei
fiancee
cruelty
egypt
nasa
##rst
accessed
surveillance
##uppe
##station
##lum
weeds
airing
airplane
governor
separately
unincorporated
braced
・
##世
drill
freiburg
##typical
[unused645]
##ur
spans
counsel
##pers
##vati
randomly
flourishing
##dgets
participant
1950s
##wai
relegation
##shed
tablet
referring
theater
##mia
capt
dail
wounds
frantic
##erated
peppers
store
hayward
covering
##ག
posthumous
romero
burton
miguel
breach
freak
annexed
[unused7]
scan
gaping
[unused382]
relocate
antonia
##ropriation
polytechnic
impression
vivian
windsor
interfering
buddha
reduce
1929
josiah
systemic
edison
entrance
pastures
participation
peak
cooling
robinson
trojan
relax
##rky
hush
fights
marion
progressed
reacting
carried
cents
##hide
emphasizing
mary
graph
padma
[unused800]
possibilities
##dly
##lling
nonstop
rosie
approximate
##↓
##jm
justices
[unused655]
[unused404]
numb
grape
banging
oxidation
jacobs
prequel
interceptor
mothers
prolonged
##gler
volcanoes
cannot
hesitated
##pod
shook
roofed
splashed
multiplayer
wen
unexpected
slated
damien
##ti
moments
blocked
arranging
operated
sire
##®
950
wisconsin
novak
197
##rber
1910
##raphy
picks
untouched
##fc
remembrance
##unds
yank
[unused929]
relics
greyish
chip
centimeters
##ław
sinn
roam
bk
geologic
fifa
##rrell
ascot
sniffing
vastly
hilarious
aliens
ɑ
##llins
stormy
printing
motorsports
kun
dominant
damn
ked
justify
##uss
frantically
societies
sonny
brewery
scarlett
##ya
lung
balkans
goalscorer
stayed
punk
[unused677]
dockyard
##宮
##kr
reversed
hilton
prosperous
mask
kei
[unused465]
secrecy
##cased
alphabet
croatian
boost
touchdown
##ר
fuzzy
pena
accessories
fray
recounts
dissertation
twitch
sloane
navigation
repairs
hind
stimulate
pantry
flowing
musical
pixel
west
°f
tune
shock
peanuts
americana
finite
2005
gladys
##ciation
harvard
rolf
anatomy
##unas
[unused325]
##gate
##hopper
ghostly
yourselves
[unused413]
proving
atlantis
mavericks
joke
staircase
java
circumstances
fiance
macon
defeats
augusto
covert
room
specials
ropes
trustees
wolverine
therapist
218
##ative
##rk
guangzhou
##民
pricing
france
##pis
spiral
apps
indeed
vedic
hopes
bush
sheridan
ceasefire
##jan
vows
thompson
instruction
##ken
lazy
##gling
911
##erative
pick
##ћ
##ginal
##hos
polish
sensitivity
[unused715]
[unused79]
served
qc
advice
1984
##lston
parade
palma
##andra
stalking
proteins
marin
jumps
infrared
time
##alia
##ection
wren
bookstore
war
auckland
slot
1896
seventh
雄
##kova
cpc
kendall
##lithic
kruger
##rdes
talon
ecosystems
thumping
##nate
teams
##lander
canada
##hema
li
ballroom
collective
identifies
leaped
relies
referenced
segregation
hull
##ה
ipa
segunda
depended
よ
trinity
genres
burials
assumed
networking
temptation
coyotes
campground
brittany
runner
nation
lacked
buff
pennsylvania
##schen
advocates
negotiation
##nham
carlisle
estimate
missionary
##ц
illness
##vas
ethical
wanna
intellectuals
ca
nope
น
##ilation
all
zaragoza
##riated
nyc
officer
犬
##mies
tiberius
hmm
##lion
country
diving
trips
ang
[unused656]
sportsman
assemblies
panorama
odds
abduction
narrows
hoax
knows
simplest
oblast
matrix
##ptive
##point
mined
talbot
glendale
mmm
subterranean
gerhard
##白
tapped
assassins
1705
mineral
##bber
##pile
tully
slow
suppose
neue
competitive
movement
##berg
halloween
timed
[unused225]
rarely
mountains
vhf
inflicted
##ᄑ
freight
orthodoxy
location
illegitimate
siemens
element
fertile
fukuoka
##rde
dive
[unused244]
modular
decidedly
alternatively
80
economics
1855
nicholas
mace
ile
tailored
1953
watches
ড
gene
palmer
reading
colored
choreographer
##rva
wavy
##nden
piccolo
estranged
significantly
ellen
##rb
##ors
1976
323
canonical
isolation
churches
healer
joel
crawley
##proof
eliza
extinguished
cong
na
tiles
##rge
amadeus
backyard
heavier
nuevo
strangled
sharif
phi
##enia
biting
117
leaving
virus
resolutions
##vira
vertigo
ท
submarine
existing
aspiring
bladed
mortals
dating
[unused827]
rae
twigs
##lar
responsible
##ppet
translation
croats
ひ
wetlands
fun
ozone
##orno
dismiss
drifting
thorn
將
##backs
##idge
arrogant
illustrator
appalachian
lloyd
partnering
warnings
outta
licence
##rah
##zuki
scar
nickname
[unused523]
big
##rate
##nya
reversal
weakened
mediation
que
##]
caps
bizarre
breakaway
ear
##ament
except
》
dual
mir
sanford
witnessing
harding
～
devil
##rong
brighton
bouncing
aaa
sides
implemented
ᵃ
bowed
required
##rch
rein
cellar
ellis
gibraltar
tianjin
nearly
##ame
ram
price
swindon
[unused666]
midday
fluent
в
homer
1913
mercenary
maldives
os
¹
worth
mei
shout
electoral
##gano
masks
cheryl
really
mormon
##vez
##nary
[unused91]
c1
joe
dramas
answer
清
2009
executing
sponsored
95
too
disciplines
siblings
craving
##ђ
##otti
ensuring
[unused799]
[unused680]
td
grassland
substances
cfl
##iff
ajax
##bis
settles
ruse
norms
ministry
kata
##ত
scale
##ados
saxophone
##bial
##ulum
##忠
breakfast
halle
donkey
##pine
[unused230]
##iers
excessive
ernie
thirty
peeling
holds
berlin
adequate
pleased
assortment
pilasters
steer
##chers
naga
anne
##ハ
concussion
cane
##ffer
##ד
advisors
evangelist
##lass
become
##貴
privateer
settlers
canal
remarried
##mad
##wide
ordination
approved
##lence
expects
vis
vicious
helping
##ick
engage
[unused690]
marino
##dez
meantime
earl
picket
keepers
##mer
diocesan
2011
edition
##aith
lenin
comprise
yards
441
tick
wheelbase
memo
inauguration
625
sylvester
faulty
usl
dh
##pd
##riation
thorne
efforts
##cence
letterman
##pkins
gustav
343
piss
administrations
##ض
comical
positive
marlon
regarded
titled
beautiful
collectors
recreated
##witz
hebrew
tame
din
sleeves
johann
##giri
reclamation
accuse
##nah
amended
မ
x
ebert
scored
[unused918]
schools
extended
docks
##ster
ɒ
maurice
diamond
##dorf
##mmel
grows
セ
grille
could
lookout
influencing
expressive
bulging
helens
##top
importance
springfield
120
holes
kingston
villages
##eric
mrna
196
区
look
##ß
ottoman
##ible
##フ
friction
stitches
##oise
taft
[unused192]
testing
played
behold
##tas
howell
orion
originally
habits
久
rights
[unused49]
finale
digits
##bang
disappointed
–
employers
musicals
banana
systematic
alton
concordia
gao
k
texas
[unused215]
##ᄀ
[unused589]
reef
tao
##ɒ
owed
##dler
##cuit
267
sul
tricked
##ʋ
53
##amina
debates
meanings
kathmandu
sabah
10
171
immediate
tails
##sis
roofs
incorrectly
volvo
dioxide
25
[unused681]
drawn
messiah
##iti
initiate
causal
coe
innings
steaming
alonso
##rcle
locality
1965
##ulia
projections
shelter
chestnut
nearer
##35
bollywood
mainly
decor
##cu
apostles
laps
marched
logistical
slammed
wallis
event
whitney
oleg
##vot
sadie
escort
overwhelmingly
shelf
##entes
##¥
fading
##ddin
##inn
[unused794]
engaged
reasoned
ahmad
czech
alfonso
ض
milo
[unused889]
driver
##saka
fia
energy
up
imaginative
bite
cracked
applicants
curb
trans
harmed
coat
sites
hana
:
leung
baltic
strikes
owe
##jack
analyses
productivity
curtiss
modernization
norwich
grand
scooped
ч
##f
delivery
switch
[unused901]
filmed
scouts
royal
hedges
pages
currently
rubbed
eyeing
manila
textbooks
swiped
##〜
##itt
##tie
ᄂ
theories
suits
##／
宮
1924
id
requiring
[unused21]
fixed
[unused334]
fighters
sentences
##gl
##houses
barrow
##39
##odes
debt
laughs
1943
[unused945]
talk
offenses
armament
knob
vase
anwar
dem
attic
revolves
ร
straightening
##scan
##ang
pot
homework
client
##tor
blasts
massachusetts
diagrams
braking
##mel
confederates
freaks
##hma
[unused47]
grins
[unused646]
##ba
wired
alberta
key
##nsky
leather
forested
rosenthal
sewage
hunt
sac
pearls
whimper
constrained
##へ
translations
descend
nutrients
checkpoint
comparisons
represents
##tray
##ischen
kaladin
akira
##tania
##itte
departmental
software
passenger
##no
broadcasts
、
paranormal
redding
agreed
inducted
hosting
simpsons
hinted
[unused540]
media
composure
owners
sighs
326
minions
sabbath
##lho
leaping
##ე
আ
amend
mach
interview
second
organizes
##agger
[unused724]
burnett
tapping
bronx
pub
intense
##icio
ctv
overthrow
ar
##ड
1701
directors
armada
less
rustic
feminine
denotes
##ieving
olympics
sibling
dodged
maternal
wolves
[unused842]
gail
way
old
tee
1803
conjecture
southernmost
##ell
versa
feelings
lisbon
##omorphic
sugar
reflections
freeing
[unused327]
[unused686]
township
##cable
lehman
monopoly
##weight
bitten
435
simplified
nationale
cartridges
spruce
porter
conversation
golden
##ky
crazy
pakistani
[unused161]
chemotherapy
algebra
resumed
compose
ས
pity
lullaby
rq
##gil
followers
##rani
governed
sloppy
suffered
1634
previously
whilst
titanium
##kat
seventeenth
[unused771]
retailers
expensive
bikini
lesson
ರ
skies
¬
vanish
robson
alive
fran
dj
1835
erect
wars
##14
ے
warrington
[unused408]
ski
erected
crimean
keys
divided
reddy
contaminated
assent
ς
november
##─
statutes
stirling
vt
trigger
clerical
faso
dry
tribal
smart
nightclub
##has
this
insignia
driven
nostrils
##khov
moor
norse
surveyor
##werk
elect
architect
##naire
graphs
strings
algae
##vite
##ax
heard
lecture
##bba
avoids
florence
瀬
bye
controversial
##berger
exploits
atmosphere
ा
luxurious
kuwait
onstage
enjoys
##yman
##⁰
cheeks
dude
##gb
prayer
administering
threw
reproduced
##tner
replay
portrays
retire
archduke
pale
ա
##stan
[unused51]
officials
##」
cambrian
##ᴵ
logo
torpedoes
yamaha
highest
mla
nash
asa
encouragement
##真
capitalism
critique
##aring
spectra
posting
##omics
reform
symmetric
milan
##ვ
##aint
stays
##mare
##յ
tackle
hitting
benoit
boeing
家
ceremonies
nursery
seater
assert
selena
##taking
analytics
##eli
mirage
collier
##65
damaging
##lez
assume
##ァ
nipple
##lake
##ically
booth
impress
zur
rutherford
æ
concern
uprising
##อ
commemorative
coefficient
hour
www
ambiguity
schmidt
##tering
hilt
silent
rye
##ski
lynne
vanilla
reporter
sept
空
vacuum
just
heats
rotting
##yne
quasi
##ages
dorothea
forth
overly
1734
appealing
smell
##atin
speculated
vuelta
slave
questionable
⊗
##事
steak
newbury
keen
apply
##raße
guise
designing
cavern
perkins
helplessly
agustin
##umen
##raph
cho
opponents
[unused97]
metaphor
uniformly
bastion
exclude
reliance
2014
context
formulation
##uming
行
##isance
leslie
tb
booking
hobart
ley
guilt
scully
←
cyrillic
gifted
support
[unused27]
##rz
nepal
enthusiasts
♣
compromised
samuel
sergei
gora
thrown
recaptured
dividing
culture
val
##standing
van
molecule
large
disclosure
terminal
alternately
##hoot
##nium
masked
cy
yunnan
pak
##gm
##lled
seniors
medial
1927
christophe
[unused369]
circuit
grasses
##rma
barak
duchess
animals
reverse
[unused852]
sustain
[unused591]
allison
wrath
390
steals
reid
clipped
peach
aachen
57
villagers
70
punches
##か
oct
spade
whoever
260
straightened
##borough
sorting
meanwhile
indira
##lee
relinquished
respects
violins
747
silence
tunis
『
pleasantly
##⁴
[unused107]
reich
ndp
yamamoto
[unused757]
rune
annual
addicted
portions
environments
mansfield
dina
use
¿
enthusiasm
donation
hardened
incomes
##wall
##lism
todd
##hi
chanting
joan
treatise
consist
##ese
host
constantin
cornwall
##amy
##card
##helm
woodrow
basin
courses
consonants
##ucci
##ibe
ʎ
husky
theological
commanding
##ded
[unused177]
##ups
drift
refer
cynthia
diane
##zia
larson
mason
unspecified
memorial
ritual
plato
conor
propeller
christopher
##tituted
direct
ـ
relief
braun
##itung
grooves
walter
wrestlers
##orra
presenters
autopsy
vincent
directions
hoisted
##dded
whirled
[unused535]
ю
agrarian
bombing
convent
pills
bce
sudanese
bacteria
protesting
gandhi
beforehand
highs
##fe
rags
##logy
##hem
宗
##itarian
progresses
consume
##plane
intriguing
haitian
divine
cadillac
sideways
sim
lakes
romance
beaches
suffolk
lucia
sears
##aud
##ometric
##me
saxons
##ries
nike
erotic
algeria
##ᅦ
cabinets
employer
prescribed
pie
kissed
fai
##tique
tak
##tone
##taro
ea
sins
iron
書
diagnosed
mal
tibet
##ceae
##cina
airlines
blunt
##歌
reservoir
davey
darryl
[unused830]
stephanie
##hman
[...]
